{
  "version": "1.0",
  "truncation": null,
  "padding": null,
  "added_tokens": [
    {
      "id": 0,
      "content": "[PAD]",
      "single_word": false,
      "lstrip": false,
      "rstrip": false,
      "normalized": false,
      "special": true
    },
    {
      "id": 1,
      "content": "[UNK]",
      "single_word": false,
      "lstrip": false,
      "rstrip": false,
      "normalized": false,
      "special": true
    },
    {
      "id": 2,
      "content": "[BOS]",
      "single_word": false,
      "lstrip": false,
      "rstrip": false,
      "normalized": false,
      "special": true
    },
    {
      "id": 3,
      "content": "[EOS]",
      "single_word": false,
      "lstrip": false,
      "rstrip": false,
      "normalized": false,
      "special": true
    }
  ],
  "normalizer": null,
  "pre_tokenizer": {
    "type": "Whitespace"
  },
  "post_processor": {
    "type": "TemplateProcessing",
    "single": [
      {
        "SpecialToken": {
          "id": "[BOS]",
          "type_id": 0
        }
      },
      {
        "Sequence": {
          "id": "A",
          "type_id": 0
        }
      },
      {
        "SpecialToken": {
          "id": "[EOS]",
          "type_id": 0
        }
      }
    ],
    "pair": [
      {
        "Sequence": {
          "id": "A",
          "type_id": 0
        }
      },
      {
        "Sequence": {
          "id": "B",
          "type_id": 1
        }
      }
    ],
    "special_tokens": {
      "[BOS]": {
        "id": "[BOS]",
        "ids": [
          2
        ],
        "tokens": [
          "[BOS]"
        ]
      },
      "[EOS]": {
        "id": "[EOS]",
        "ids": [
          3
        ],
        "tokens": [
          "[EOS]"
        ]
      }
    }
  },
  "decoder": null,
  "model": {
    "type": "BPE",
    "dropout": null,
    "unk_token": null,
    "continuing_subword_prefix": null,
    "end_of_word_suffix": null,
    "fuse_unk": false,
    "byte_fallback": false,
    "ignore_merges": false,
    "vocab": {
      "[PAD]": 0,
      "[UNK]": 1,
      "[BOS]": 2,
      "[EOS]": 3,
      "\"": 4,
      "%": 5,
      "'": 6,
      "(": 7,
      ")": 8,
      ",": 9,
      "-": 10,
      ".": 11,
      "/": 12,
      "0": 13,
      "1": 14,
      "2": 15,
      "3": 16,
      "4": 17,
      "5": 18,
      "6": 19,
      "7": 20,
      "8": 21,
      ":": 22,
      "A": 23,
      "B": 24,
      "C": 25,
      "D": 26,
      "E": 27,
      "F": 28,
      "G": 29,
      "H": 30,
      "I": 31,
      "J": 32,
      "K": 33,
      "L": 34,
      "M": 35,
      "N": 36,
      "O": 37,
      "Q": 38,
      "R": 39,
      "S": 40,
      "T": 41,
      "U": 42,
      "V": 43,
      "W": 44,
      "Y": 45,
      "a": 46,
      "b": 47,
      "c": 48,
      "d": 49,
      "e": 50,
      "f": 51,
      "g": 52,
      "h": 53,
      "i": 54,
      "j": 55,
      "k": 56,
      "l": 57,
      "m": 58,
      "n": 59,
      "o": 60,
      "p": 61,
      "q": 62,
      "r": 63,
      "s": 64,
      "t": 65,
      "u": 66,
      "v": 67,
      "w": 68,
      "x": 69,
      "y": 70,
      "z": 71,
      "é": 72,
      "ñ": 73,
      "‘": 74,
      "’": 75,
      "“": 76,
      "”": 77,
      "ch": 78,
      "hi": 79,
      "whi": 80,
      "which": 81,
      "as": 82,
      "has": 83,
      "or": 84,
      "ed": 85,
      "es": 86,
      "is": 87,
      "in": 88,
      "er": 89,
      "an": 90,
      "ar": 91,
      "on": 92,
      "th": 93,
      "ll": 94,
      "re": 95,
      "la": 96,
      "ro": 97,
      "et": 98,
      "of": 99,
      "and": 100,
      "ing": 101,
      "ri": 102,
      "en": 103,
      "to": 104,
      "sa": 105,
      "co": 106,
      "su": 107,
      "am": 108,
      "ic": 109,
      "wi": 110,
      "te": 111,
      "ma": 112,
      "ce": 113,
      "ca": 114,
      "ou": 115,
      "ts": 116,
      "with": 117,
      "pp": 118,
      "eg": 119,
      "ese": 120,
      "sh": 121,
      "che": 122,
      "be": 123,
      "li": 124,
      "ish": 125,
      "le": 126,
      "at": 127,
      "me": 128,
      "such": 129,
      "cheese": 130,
      "les": 131,
      "ab": 132,
      "ad": 133,
      "ter": 134,
      "cre": 135,
      "un": 136,
      "sp": 137,
      "bro": 138,
      "ion": 139,
      "cak": 140,
      "se": 141,
      "gh": 142,
      "ser": 143,
      "ap": 144,
      "ow": 145,
      "sau": 146,
      "oth": 147,
      "ings": 148,
      "ta": 149,
      "col": 150,
      "cream": 151,
      "the": 152,
      "il": 153,
      "gar": 154,
      "bs": 155,
      "color": 156,
      "car": 157,
      "ell": 158,
      "ill": 159,
      "us": 160,
      "wn": 161,
      "brown": 162,
      "serv": 163,
      "ur": 164,
      "veg": 165,
      "veget": 166,
      "vegetab": 167,
      "vegetables": 168,
      "ac": 169,
      "sauce": 170,
      "cake": 171,
      "cho": 172,
      "all": 173,
      "late": 174,
      "fri": 175,
      "de": 176,
      "shap": 177,
      "ari": 178,
      "sou": 179,
      "served": 180,
      "al": 181,
      "cr": 182,
      "topp": 183,
      "other": 184,
      "bre": 185,
      "red": 186,
      "ve": 187,
      "tar": 188,
      "ally": 189,
      "may": 190,
      "lic": 191,
      "onion": 192,
      "ut": 193,
      "ra": 194,
      "vari": 195,
      "lad": 196,
      "od": 197,
      "lo": 198,
      "gn": 199,
      "fo": 200,
      "ast": 201,
      "salad": 202,
      "fill": 203,
      "ick": 204,
      "fla": 205,
      "mp": 206,
      "bread": 207,
      "egg": 208,
      "tu": 209,
      "und": 210,
      "sand": 211,
      "round": 212,
      "ght": 213,
      "wich": 214,
      "sandwich": 215,
      "qu": 216,
      "ang": 217,
      "we": 218,
      "usu": 219,
      "usually": 220,
      "ho": 221,
      "ents": 222,
      "creamy": 223,
      "shape": 224,
      "pi": 225,
      "fried": 226,
      "ak": 227,
      "ink": 228,
      "mi": 229,
      "chi": 230,
      "ame": 231,
      "soup": 232,
      "mo": 233,
      "ru": 234,
      "nish": 235,
      "garnish": 236,
      "meat": 237,
      "ture": 238,
      "xture": 239,
      "go": 240,
      "ef": 241,
      "beef": 242,
      "oli": 243,
      "ers": 244,
      "pe": 245,
      "food": 246,
      "ti": 247,
      "thi": 248,
      "variet": 249,
      "fre": 250,
      "chick": 251,
      "light": 252,
      "yell": 253,
      "yellow": 254,
      "gri": 255,
      "ps": 256,
      "variety": 257,
      "chicken": 258,
      "slic": 259,
      "texture": 260,
      "cu": 261,
      "nch": 262,
      "her": 263,
      "herbs": 264,
      "top": 265,
      "vor": 266,
      "french": 267,
      "fa": 268,
      "ld": 269,
      "colate": 270,
      "chocolate": 271,
      "di": 272,
      "na": 273,
      "oy": 274,
      "lay": 275,
      "ry": 276,
      "plate": 277,
      "gre": 278,
      "white": 279,
      "sea": 280,
      "uts": 281,
      "fro": 282,
      "con": 283,
      "ib": 284,
      "ck": 285,
      "lled": 286,
      "ork": 287,
      "lar": 288,
      "topped": 289,
      "eggs": 290,
      "thin": 291,
      "mus": 292,
      "ces": 293,
      "pie": 294,
      "rice": 295,
      "du": 296,
      "oil": 297,
      "gold": 298,
      "mall": 299,
      "golden": 300,
      "lu": 301,
      "small": 302,
      "oft": 303,
      "ct": 304,
      "sal": 305,
      "iz": 306,
      "app": 307,
      "filled": 308,
      "slices": 309,
      "hot": 310,
      "pork": 311,
      "ous": 312,
      "bas": 313,
      "sur": 314,
      "rink": 315,
      "ingred": 316,
      "ingredi": 317,
      "ingredients": 318,
      "hu": 319,
      "os": 320,
      "swe": 321,
      "sweet": 322,
      "ok": 323,
      "fish": 324,
      "st": 325,
      "flavor": 326,
      "dish": 327,
      "toast": 328,
      "mel": 329,
      "ly": 330,
      "roll": 331,
      "sy": 332,
      "der": 333,
      "yo": 334,
      "bster": 335,
      "lobster": 336,
      "chips": 337,
      "spic": 338,
      "ty": 339,
      "pan": 340,
      "mon": 341,
      "lam": 342,
      "face": 343,
      "surface": 344,
      "toppings": 345,
      "layer": 346,
      "onions": 347,
      "sour": 348,
      "vi": 349,
      "cook": 350,
      "ular": 351,
      "cakes": 352,
      "do": 353,
      "ks": 354,
      "toma": 355,
      "tomato": 356,
      "led": 357,
      "ments": 358,
      "ha": 359,
      "bur": 360,
      "shell": 361,
      "pu": 362,
      "macar": 363,
      "owder": 364,
      "tartar": 365,
      "ff": 366,
      "res": 367,
      "garlic": 368,
      "fries": 369,
      "des": 370,
      "angular": 371,
      "carro": 372,
      "ci": 373,
      "ide": 374,
      "sprink": 375,
      "nuts": 376,
      "spa": 377,
      "etti": 378,
      "ghetti": 379,
      "spaghetti": 380,
      "bac": 381,
      "raw": 382,
      "vis": 383,
      "have": 384,
      "spices": 385,
      "cooked": 386,
      "que": 387,
      "can": 388,
      "ge": 389,
      "ough": 390,
      "dough": 391,
      "pepp": 392,
      "ible": 393,
      "smo": 394,
      "mb": 395,
      "bow": 396,
      "ram": 397,
      "ke": 398,
      "rui": 399,
      "frui": 400,
      "iso": 401,
      "tartare": 402,
      "smooth": 403,
      "bowl": 404,
      "grilled": 405,
      "ort": 406,
      "bon": 407,
      "but": 408,
      "cur": 409,
      "ange": 410,
      "illa": 411,
      "cro": 412,
      "ted": 413,
      "op": 414,
      "pink": 415,
      "comp": 416,
      "are": 417,
      "weed": 418,
      "seaweed": 419,
      "bean": 420,
      "butter": 421,
      "green": 422,
      "ong": 423,
      "often": 424,
      "like": 425,
      "ise": 426,
      "dd": 427,
      "za": 428,
      "various": 429,
      "visible": 430,
      "ai": 431,
      "orange": 432,
      "flat": 433,
      "etiz": 434,
      "appetiz": 435,
      "filling": 436,
      "gr": 437,
      "pped": 438,
      "ust": 439,
      "macaron": 440,
      "sugar": 441,
      "isp": 442,
      "ent": 443,
      "cup": 444,
      "rimp": 445,
      "ole": 446,
      "ins": 447,
      "ella": 448,
      "gu": 449,
      "ges": 450,
      "crisp": 451,
      "fe": 452,
      "sert": 453,
      "dessert": 454,
      "ste": 455,
      "ice": 456,
      "ver": 457,
      "amole": 458,
      "acamole": 459,
      "guacamole": 460,
      "po": 461,
      "ves": 462,
      "past": 463,
      "ign": 464,
      "pieces": 465,
      "arm": 466,
      "tw": 467,
      "clu": 468,
      "olive": 469,
      "mpl": 470,
      "dumpl": 471,
      "shrimp": 472,
      "los": 473,
      "glos": 474,
      "glossy": 475,
      "cut": 476,
      "seafood": 477,
      "seas": 478,
      "season": 479,
      "sca": 480,
      "rect": 481,
      "cap": 482,
      "scall": 483,
      "tion": 484,
      "zen": 485,
      "frozen": 486,
      "cor": 487,
      "melted": 488,
      "bak": 489,
      "pastry": 490,
      "gra": 491,
      "chun": 492,
      "tin": 493,
      "shi": 494,
      "bo": 495,
      "squ": 496,
      "ani": 497,
      "accomp": 498,
      "accompani": 499,
      "pick": 500,
      "rings": 501,
      "vet": 502,
      "lvet": 503,
      "velvet": 504,
      "chunks": 505,
      "ie": 506,
      "mix": 507,
      "rectangular": 508,
      "soy": 509,
      "gur": 510,
      "based": 511,
      "dumplings": 512,
      "yogur": 513,
      "yogurt": 514,
      "carrots": 515,
      "bis": 516,
      "eds": 517,
      "seeds": 518,
      "grits": 519,
      "wa": 520,
      "pa": 521,
      "hue": 522,
      "ses": 523,
      "crab": 524,
      "edges": 525,
      "two": 526,
      "sesame": 527,
      "dri": 528,
      "sauces": 529,
      "let": 530,
      "tomatoes": 531,
      "cot": 532,
      "cotta": 533,
      "fruits": 534,
      "tional": 535,
      "tto": 536,
      "carp": 537,
      "nacho": 538,
      "fat": 539,
      "broth": 540,
      "chop": 541,
      "salmon": 542,
      "las": 543,
      "lee": 544,
      "bru": 545,
      "creme": 546,
      "brulee": 547,
      "fil": 548,
      "tard": 549,
      "val": 550,
      "beign": 551,
      "beignet": 552,
      "fast": 553,
      "break": 554,
      "breakfast": 555,
      "for": 556,
      "clam": 557,
      "hum": 558,
      "macaroni": 559,
      "hummus": 560,
      "appetizer": 561,
      "oc": 562,
      "peppers": 563,
      "powder": 564,
      "ques": 565,
      "adilla": 566,
      "quesadilla": 567,
      "ribs": 568,
      "rito": 569,
      "burrito": 570,
      "mu": 571,
      "square": 572,
      "ara": 573,
      "long": 574,
      "beans": 575,
      "carbon": 576,
      "va": 577,
      "carbonara": 578,
      "shaped": 579,
      "ood": 580,
      "bib": 581,
      "imb": 582,
      "bibimb": 583,
      "bibimbap": 584,
      "ated": 585,
      "salsa": 586,
      "sel": 587,
      "mussel": 588,
      "gras": 589,
      "foie": 590,
      "rus": 591,
      "topping": 592,
      "fres": 593,
      "savor": 594,
      "fresh": 595,
      "savory": 596,
      "omel": 597,
      "omelet": 598,
      "crust": 599,
      "gnon": 600,
      "mignon": 601,
      "filet": 602,
      "wings": 603,
      "soft": 604,
      "pulled": 605,
      "dic": 606,
      "edam": 607,
      "edamame": 608,
      "bolo": 609,
      "tri": 610,
      "bacon": 611,
      "paella": 612,
      "cy": 613,
      "ger": 614,
      "taco": 615,
      "dame": 616,
      "madame": 617,
      "croque": 618,
      "decor": 619,
      "etta": 620,
      "pudd": 621,
      "pudding": 622,
      "burger": 623,
      "shapes": 624,
      "vin": 625,
      "onna": 626,
      "mayonna": 627,
      "mayonnaise": 628,
      "diced": 629,
      "acci": 630,
      "carpacci": 631,
      "carpaccio": 632,
      "isu": 633,
      "tiram": 634,
      "tiramisu": 635,
      "agn": 636,
      "lasagn": 637,
      "lasagna": 638,
      "made": 639,
      "ict": 640,
      "ened": 641,
      "rib": 642,
      "bened": 643,
      "benedict": 644,
      "dev": 645,
      "pho": 646,
      "ros": 647,
      "fel": 648,
      "lafel": 649,
      "falafel": 650,
      "iled": 651,
      "deviled": 652,
      "tak": 653,
      "ating": 654,
      "flak": 655,
      "chowder": 656,
      "aki": 657,
      "oyaki": 658,
      "takoyaki": 659,
      "pad": 660,
      "ek": 661,
      "gnese": 662,
      "bolognese": 663,
      "thai": 664,
      "ters": 665,
      "sters": 666,
      "calam": 667,
      "oysters": 668,
      "calamari": 669,
      "rup": 670,
      "syrup": 671,
      "waff": 672,
      "ashi": 673,
      "pic": 674,
      "sashi": 675,
      "sashimi": 676,
      "esar": 677,
      "caesar": 678,
      "thick": 679,
      "toasted": 680,
      "ats": 681,
      "meats": 682,
      "riso": 683,
      "risotto": 684,
      "pically": 685,
      "typically": 686,
      "tuce": 687,
      "lettuce": 688,
      "anch": 689,
      "layers": 690,
      "greek": 691,
      "fillings": 692,
      "warm": 693,
      "teri": 694,
      "back": 695,
      "chur": 696,
      "churros": 697,
      "ep": 698,
      "short": 699,
      "lava": 700,
      "baklava": 701,
      "deep": 702,
      "club": 703,
      "par": 704,
      "pping": 705,
      "escar": 706,
      "escargo": 707,
      "ions": 708,
      "miso": 709,
      "unch": 710,
      "samo": 711,
      "samosa": 712,
      "tun": 713,
      "tuna": 714,
      "brus": 715,
      "tro": 716,
      "nood": 717,
      "chetta": 718,
      "bruschetta": 719,
      "noodles": 720,
      "beet": 721,
      "cru": 722,
      "condi": 723,
      "cann": 724,
      "cannoli": 725,
      "dipping": 726,
      "king": 727,
      "oon": 728,
      "seasonings": 729,
      "duck": 730,
      "lemon": 731,
      "ranch": 732,
      "eros": 733,
      "vos": 734,
      "huevos": 735,
      "rancheros": 736,
      "terior": 737,
      "sushi": 738,
      "peking": 739,
      "condiments": 740,
      "ramen": 741,
      "dog": 742,
      "gnoc": 743,
      "gnocchi": 744,
      "panna": 745,
      "bisque": 746,
      "pri": 747,
      "prime": 748,
      "by": 749,
      "from": 750,
      "cevi": 751,
      "ceviche": 752,
      "rese": 753,
      "caprese": 754,
      "ark": 755,
      "egar": 756,
      "vinegar": 757,
      "nachos": 758,
      "ber": 759,
      "dark": 760,
      "ey": 761,
      "side": 762,
      "bri": 763,
      "cen": 764,
      "center": 765,
      "bright": 766,
      "curry": 767,
      "gla": 768,
      "glaz": 769,
      "ten": 770,
      "chili": 771,
      "lin": 772,
      "zza": 773,
      "pizza": 774,
      "crispy": 775,
      "bab": 776,
      "baby": 777,
      "inn": 778,
      "nut": 779,
      "pepper": 780,
      "tacos": 781,
      "basil": 782,
      "ops": 783,
      "straw": 784,
      "strawber": 785,
      "siz": 786,
      "sprinkles": 787,
      "steam": 788,
      "pap": 789,
      "bla": 790,
      "pou": 791,
      "black": 792,
      "tine": 793,
      "poutine": 794,
      "mussels": 795,
      "bun": 796,
      "gyo": 797,
      "gyoza": 798,
      "frost": 799,
      "frosting": 800,
      "accompaniments": 801,
      "scallops": 802,
      "mous": 803,
      "mousse": 804,
      "mar": 805,
      "min": 806,
      "eat": 807,
      "tato": 808,
      "potato": 809,
      "beignets": 810,
      "ravi": 811,
      "carrot": 812,
      "ravioli": 813,
      "sprinkled": 814,
      "uton": 815,
      "crouton": 816,
      "atter": 817,
      "cover": 818,
      "pas": 819,
      "ved": 820,
      "curved": 821,
      "triangular": 822,
      "oval": 823,
      "ard": 824,
      "fruit": 825,
      "tort": 826,
      "tortilla": 827,
      "om": 828,
      "lightly": 829,
      "zz": 830,
      "sing": 831,
      "optional": 832,
      "strawberry": 833,
      "colored": 834,
      "wh": 835,
      "shells": 836,
      "shortcake": 837,
      "ack": 838,
      "powdered": 839,
      "rad": 840,
      "pita": 841,
      "crunch": 842,
      "dres": 843,
      "dressing": 844,
      "amon": 845,
      "decorat": 846,
      "sliced": 847,
      "crunchy": 848,
      "our": 849,
      "hard": 850,
      "outs": 851,
      "outside": 852,
      "kin": 853,
      "flavors": 854,
      "pancakes": 855,
      "ham": 856,
      "mbs": 857,
      "whipped": 858,
      "wra": 859,
      "crumbs": 860,
      "lue": 861,
      "blue": 862,
      "tain": 863,
      "ddle": 864,
      "cal": 865,
      "cylin": 866,
      "mustard": 867,
      "drical": 868,
      "cylindrical": 869,
      "contain": 870,
      "apple": 871,
      "hal": 872,
      "av": 873,
      "chu": 874,
      "cheesecake": 875,
      "escargots": 876,
      "piece": 877,
      "yellowish": 878,
      "pro": 879,
      "bi": 880,
      "routs": 881,
      "sprouts": 882,
      "dip": 883,
      "covered": 884,
      "outer": 885,
      "llus": 886,
      "mollus": 887,
      "mas": 888,
      "colors": 889,
      "fl": 890,
      "hon": 891,
      "ded": 892,
      "flakes": 893,
      "honey": 894,
      "pickles": 895,
      "ex": 896,
      "eggroll": 897,
      "garnished": 898,
      "cil": 899,
      "olives": 900,
      "antro": 901,
      "cilantro": 902,
      "pars": 903,
      "ley": 904,
      "parsley": 905,
      "pasta": 906,
      "exterior": 907,
      "tof": 908,
      "tofu": 909,
      "ging": 910,
      "ginger": 911,
      "ring": 912,
      "doughnut": 913,
      "mil": 914,
      "accompanied": 915,
      "dust": 916,
      "rich": 917,
      "dusting": 918,
      "cus": 919,
      "chopped": 920,
      "sizes": 921,
      "tur": 922,
      "wy": 923,
      "chewy": 924,
      "rolls": 925,
      "ite": 926,
      "drink": 927,
      "oun": 928,
      "macaroon": 929,
      "ine": 930,
      "spring": 931,
      "item": 932,
      "drinks": 933,
      "cial": 934,
      "spe": 935,
      "custard": 936,
      "inclu": 937,
      "steak": 938,
      "special": 939,
      "lat": 940,
      "coating": 941,
      "croutons": 942,
      "parm": 943,
      "esan": 944,
      "parmesan": 945,
      "ground": 946,
      "arella": 947,
      "mozz": 948,
      "mozzarella": 949,
      "sausa": 950,
      "dis": 951,
      "distin": 952,
      "waffle": 953,
      "inside": 954,
      "used": 955,
      "cupcake": 956,
      "bb": 957,
      "vy": 958,
      "gravy": 959,
      "cons": 960,
      "hin": 961,
      "crack": 962,
      "cinn": 963,
      "cinnamon": 964,
      "meal": 965,
      "steamed": 966,
      "mixed": 967,
      "macarons": 968,
      "mbers": 969,
      "cucu": 970,
      "cucumbers": 971,
      "layered": 972,
      "ery": 973,
      "flour": 974,
      "ach": 975,
      "sn": 976,
      "bet": 977,
      "ween": 978,
      "between": 979,
      "decorations": 980,
      "ball": 981,
      "lect": 982,
      "anda": 983,
      "llanda": 984,
      "llandaise": 985,
      "hotdog": 986,
      "bone": 987,
      "base": 988,
      "ket": 989,
      "grains": 990,
      "plat": 991,
      "ano": 992,
      "paper": 993,
      "chup": 994,
      "ketchup": 995,
      "hed": 996,
      "mashed": 997,
      "main": 998,
      "llop": 999,
      "dollop": 1000,
      "bled": 1001,
      "garnishes": 1002,
      "slightly": 1003,
      "don": 1004,
      "ment": 1005,
      "lery": 1006,
      "grey": 1007,
      "type": 1008,
      "scallions": 1009,
      "eal": 1010,
      "that": 1011,
      "celery": 1012,
      "pen": 1013,
      "ju": 1014,
      "batter": 1015,
      "juice": 1016,
      "ja": 1017,
      "jala": 1018,
      "sprinkle": 1019,
      "radish": 1020,
      "mollusk": 1021,
      "jalapen": 1022,
      "lime": 1023,
      "thinly": 1024,
      "glaze": 1025,
      "spoon": 1026,
      "lian": 1027,
      "Ita": 1028,
      "frenchtoast": 1029,
      "Italian": 1030,
      "allow": 1031,
      "consis": 1032,
      "shallow": 1033,
      "tency": 1034,
      "consistency": 1035,
      "flaky": 1036,
      "wrapped": 1037,
      "lish": 1038,
      "boil": 1039,
      "boiled": 1040,
      "fan": 1041,
      "crackers": 1042,
      "ron": 1043,
      "icing": 1044,
      "ple": 1045,
      "sausage": 1046,
      "ual": 1047,
      "hamburger": 1048,
      "milk": 1049,
      "omelette": 1050,
      "chocolatecake": 1051,
      "balls": 1052,
      "room": 1053,
      "valve": 1054,
      "bivalve": 1055,
      "large": 1056,
      "shroom": 1057,
      "mushroom": 1058,
      "wheat": 1059,
      "ka": 1060,
      "rika": 1061,
      "paprika": 1062,
      "age": 1063,
      "mul": 1064,
      "multi": 1065,
      "mushrooms": 1066,
      "ling": 1067,
      "rid": 1068,
      "ced": 1069,
      "pickled": 1070,
      "halves": 1071,
      "oca": 1072,
      "inner": 1073,
      "avoca": 1074,
      "avocado": 1075,
      "radishes": 1076,
      "ged": 1077,
      "rame": 1078,
      "ramekin": 1079,
      "cone": 1080,
      "ess": 1081,
      "serving": 1082,
      "along": 1083,
      "mixture": 1084,
      "bu": 1085,
      "spicy": 1086,
      "interior": 1087,
      "griddle": 1088,
      "garnishment": 1089,
      "tooth": 1090,
      "toothpick": 1091,
      "bistro": 1092,
      "bal": 1093,
      "decorated": 1094,
      "tex": 1095,
      "mic": 1096,
      "samic": 1097,
      "balsamic": 1098,
      "si": 1099,
      "was": 1100,
      "patter": 1101,
      "pattern": 1102,
      "abi": 1103,
      "wasabi": 1104,
      "slice": 1105,
      "items": 1106,
      "grated": 1107,
      "rang": 1108,
      "dried": 1109,
      "mint": 1110,
      "tures": 1111,
      "donuts": 1112,
      "textures": 1113,
      "visual": 1114,
      "cular": 1115,
      "pancake": 1116,
      "oreg": 1117,
      "include": 1118,
      "oregano": 1119,
      "pinkish": 1120,
      "sil": 1121,
      "sugary": 1122,
      "ec": 1123,
      "aro": 1124,
      "aroma": 1125,
      "escargot": 1126,
      "when": 1127,
      "design": 1128,
      "cir": 1129,
      "shred": 1130,
      "shredded": 1131,
      "fu": 1132,
      "circular": 1133,
      "appetizing": 1134,
      "they": 1135,
      "porkchop": 1136,
      "amel": 1137,
      "capers": 1138,
      "poin": 1139,
      "semi": 1140,
      "ne": 1141,
      "salt": 1142,
      "edge": 1143,
      "add": 1144,
      "appeal": 1145,
      "seasoned": 1146,
      "flu": 1147,
      "plu": 1148,
      "ffy": 1149,
      "fluffy": 1150,
      "tart": 1151,
      "brightly": 1152,
      "cer": 1153,
      "baked": 1154,
      "glazed": 1155,
      "tail": 1156,
      "ined": 1157,
      "fatty": 1158,
      "buttery": 1159,
      "tive": 1160,
      "bubb": 1161,
      "waffled": 1162,
      "erent": 1163,
      "diff": 1164,
      "different": 1165,
      "bar": 1166,
      "flo": 1167,
      "floating": 1168,
      "etc": 1169,
      "designs": 1170,
      "fine": 1171,
      "one": 1172,
      "ound": 1173,
      "ctive": 1174,
      "rais": 1175,
      "serves": 1176,
      "quent": 1177,
      "frequent": 1178,
      "radi": 1179,
      "lectic": 1180,
      "eclectic": 1181,
      "frequently": 1182,
      "len": 1183,
      "grained": 1184,
      "skin": 1185,
      "ful": 1186,
      "yol": 1187,
      "ary": 1188,
      "ancho": 1189,
      "vies": 1190,
      "anchovies": 1191,
      "vary": 1192,
      "middle": 1193,
      "hole": 1194,
      "distinctive": 1195,
      "pl": 1196,
      "breadcrumbs": 1197,
      "ander": 1198,
      "iander": 1199,
      "cumin": 1200,
      "coriander": 1201,
      "produ": 1202,
      "tender": 1203,
      "lded": 1204,
      "ffin": 1205,
      "muffin": 1206,
      "airy": 1207,
      "isin": 1208,
      "hoisin": 1209,
      "ricotta": 1210,
      "marks": 1211,
      "added": 1212,
      "ness": 1213,
      "folded": 1214,
      "wedge": 1215,
      "jalapenos": 1216,
      "product": 1217,
      "eaten": 1218,
      "gth": 1219,
      "ction": 1220,
      "length": 1221,
      "dairy": 1222,
      "air": 1223,
      "roundish": 1224,
      "ies": 1225,
      "ys": 1226,
      "cheeseburger": 1227,
      "beak": 1228,
      "ant": 1229,
      "fork": 1230,
      "size": 1231,
      "star": 1232,
      "ways": 1233,
      "pod": 1234,
      "starter": 1235,
      "scr": 1236,
      "ambled": 1237,
      "scrambled": 1238,
      "platter": 1239,
      "icecream": 1240,
      "tas": 1241,
      "into": 1242,
      "taste": 1243,
      "lunch": 1244,
      "shav": 1245,
      "shavings": 1246,
      "elong": 1247,
      "elongated": 1248,
      "half": 1249,
      "fee": 1250,
      "cof": 1251,
      "arrang": 1252,
      "coffee": 1253,
      "arranged": 1254,
      "spin": 1255,
      "raisins": 1256,
      "spinach": 1257,
      "pes": 1258,
      "ation": 1259,
      "nail": 1260,
      "uc": 1261,
      "snail": 1262,
      "pper": 1263,
      "wrapper": 1264,
      "over": 1265,
      "stri": 1266,
      "tra": 1267,
      "richness": 1268,
      "drizz": 1269,
      "freshly": 1270,
      "ny": 1271,
      "wat": 1272,
      "chamel": 1273,
      "bechamel": 1274,
      "hollandaise": 1275,
      "drizzled": 1276,
      "broad": 1277,
      "twis": 1278,
      "browned": 1279,
      "shiny": 1280,
      "prote": 1281,
      "jell": 1282,
      "jelly": 1283,
      "surround": 1284,
      "ds": 1285,
      "tray": 1286,
      "ske": 1287,
      "tradi": 1288,
      "ries": 1289,
      "chocolatemousse": 1290,
      "traditional": 1291,
      "wer": 1292,
      "skewer": 1293,
      "multiple": 1294,
      "colorful": 1295,
      "open": 1296,
      "cocon": 1297,
      "foods": 1298,
      "fet": 1299,
      "im": 1300,
      "pat": 1301,
      "osed": 1302,
      "distinct": 1303,
      "coconut": 1304,
      "pill": 1305,
      "chin": 1306,
      "pillow": 1307,
      "bell": 1308,
      "art": 1309,
      "swi": 1310,
      "ken": 1311,
      "composed": 1312,
      "sides": 1313,
      "swir": 1314,
      "addi": 1315,
      "whole": 1316,
      "broken": 1317,
      "snack": 1318,
      "En": 1319,
      "glish": 1320,
      "English": 1321,
      "zuc": 1322,
      "chini": 1323,
      "zucchini": 1324,
      "ian": 1325,
      "Can": 1326,
      "adian": 1327,
      "Canadian": 1328,
      "coa": 1329,
      "cocoa": 1330,
      "ore": 1331,
      "com": 1332,
      "Ho": 1333,
      "pointed": 1334,
      "Hollandaise": 1335,
      "range": 1336,
      "refried": 1337,
      "look": 1338,
      "compart": 1339,
      "compartments": 1340,
      "pres": 1341,
      "cutlet": 1342,
      "flavorings": 1343,
      "plump": 1344,
      "additional": 1345,
      "diamon": 1346,
      "pods": 1347,
      "diamond": 1348,
      "common": 1349,
      "commonly": 1350,
      "lea": 1351,
      "poach": 1352,
      "poached": 1353,
      "ding": 1354,
      "tam": 1355,
      "ight": 1356,
      "law": 1357,
      "hold": 1358,
      "ind": 1359,
      "ther": 1360,
      "dome": 1361,
      "ive": 1362,
      "wise": 1363,
      "lengthwise": 1364,
      "acks": 1365,
      "serve": 1366,
      "port": 1367,
      "snacks": 1368,
      "sk": 1369,
      "decorative": 1370,
      "portion": 1371,
      "appetizers": 1372,
      "bling": 1373,
      "triang": 1374,
      "marbling": 1375,
      "able": 1376,
      "leaves": 1377,
      "eses": 1378,
      "cheeses": 1379,
      "sli": 1380,
      "illet": 1381,
      "skillet": 1382,
      "bever": 1383,
      "triangle": 1384,
      "colour": 1385,
      "potatoes": 1386,
      "raight": 1387,
      "straight": 1388,
      "cent": 1389,
      "twisted": 1390,
      "ven": 1391,
      "coles": 1392,
      "coleslaw": 1393,
      "yolks": 1394,
      "slim": 1395,
      "soli": 1396,
      "liz": 1397,
      "botto": 1398,
      "waffles": 1399,
      "bottom": 1400,
      "carame": 1401,
      "slimy": 1402,
      "lized": 1403,
      "caramelized": 1404,
      "ting": 1405,
      "breading": 1406,
      "ori": 1407,
      "patty": 1408,
      "beverage": 1409,
      "aon": 1410,
      "ito": 1411,
      "bonito": 1412,
      "aonori": 1413,
      "arind": 1414,
      "pale": 1415,
      "tamarind": 1416,
      "isine": 1417,
      "cuisine": 1418,
      "Kore": 1419,
      "Korean": 1420,
      "flatbread": 1421,
      "garnishments": 1422,
      "paste": 1423,
      "containing": 1424,
      "cold": 1425,
      "ridged": 1426,
      "becu": 1427,
      "barbecu": 1428,
      "barbecue": 1429,
      "jang": 1430,
      "gochu": 1431,
      "gochujang": 1432,
      "minced": 1433,
      "comb": 1434,
      "id": 1435,
      "oriz": 1436,
      "ree": 1437,
      "greens": 1438,
      "choriz": 1439,
      "chorizo": 1440,
      "solid": 1441,
      "ridges": 1442,
      "Jap": 1443,
      "anese": 1444,
      "three": 1445,
      "Japanese": 1446,
      "amic": 1447,
      "crumb": 1448,
      "steaming": 1449,
      "fle": 1450,
      "dinner": 1451,
      "pos": 1452,
      "curds": 1453,
      "ir": 1454,
      "ceramic": 1455,
      "pron": 1456,
      "relish": 1457,
      "veins": 1458,
      "ounced": 1459,
      "pronounced": 1460,
      "bed": 1461,
      "topus": 1462,
      "lamb": 1463,
      "octopus": 1464,
      "found": 1465,
      "feta": 1466,
      "wal": 1467,
      "cou": 1468,
      "cour": 1469,
      "mollusks": 1470,
      "cks": 1471,
      "poss": 1472,
      "walnuts": 1473,
      "possible": 1474,
      "pean": 1475,
      "pesto": 1476,
      "waters": 1477,
      "including": 1478,
      "marbled": 1479,
      "bones": 1480,
      "seasoning": 1481,
      "course": 1482,
      "ination": 1483,
      "combination": 1484,
      "pur": 1485,
      "mal": 1486,
      "could": 1487,
      "cles": 1488,
      "fection": 1489,
      "purple": 1490,
      "confection": 1491,
      "tter": 1492,
      "bits": 1493,
      "malt": 1494,
      "ensil": 1495,
      "utensil": 1496,
      "chives": 1497,
      "varieties": 1498,
      "tenta": 1499,
      "astic": 1500,
      "hinged": 1501,
      "wedges": 1502,
      "plastic": 1503,
      "tentacles": 1504,
      "oped": 1505,
      "scalloped": 1506,
      "salty": 1507,
      "semo": 1508,
      "lina": 1509,
      "semolina": 1510,
      "onge": 1511,
      "read": 1512,
      "sponge": 1513,
      "spread": 1514,
      "fritter": 1515,
      "dumpling": 1516,
      "hint": 1517,
      "cas": 1518,
      "fing": 1519,
      "tern": 1520,
      "lady": 1521,
      "fused": 1522,
      "infused": 1523,
      "saff": 1524,
      "fingers": 1525,
      "saffron": 1526,
      "cabb": 1527,
      "beets": 1528,
      "ladyfingers": 1529,
      "cabbage": 1530,
      "select": 1531,
      "peanuts": 1532,
      "ls": 1533,
      "carpone": 1534,
      "mascarpone": 1535,
      "dle": 1536,
      "fles": 1537,
      "nod": 1538,
      "arby": 1539,
      "nearby": 1540,
      "flesh": 1541,
      "noddle": 1542,
      "altern": 1543,
      "alternating": 1544,
      "mer": 1545,
      "nutty": 1546,
      "Wor": 1547,
      "tershi": 1548,
      "cestershi": 1549,
      "silver": 1550,
      "Worcestershi": 1551,
      "Worcestershire": 1552,
      "selection": 1553,
      "surrounding": 1554,
      "char": 1555,
      "crepe": 1556,
      "glazes": 1557,
      "toge": 1558,
      "brownie": 1559,
      "together": 1560,
      "hued": 1561,
      "jalapeno": 1562,
      "jam": 1563,
      "covering": 1564,
      "velvety": 1565,
      "he": 1566,
      "bubbling": 1567,
      "present": 1568,
      "tea": 1569,
      "swirls": 1570,
      "dishes": 1571,
      "strips": 1572,
      "ney": 1573,
      "wood": 1574,
      "chut": 1575,
      "chutney": 1576,
      "sandwiches": 1577,
      "omet": 1578,
      "somet": 1579,
      "imes": 1580,
      "sometimes": 1581,
      "separ": 1582,
      "separated": 1583,
      "dots": 1584,
      "crisped": 1585,
      "fi": 1586,
      "bubbles": 1587,
      "ung": 1588,
      "pung": 1589,
      "vinegared": 1590,
      "eyes": 1591,
      "toothpicks": 1592,
      "pungent": 1593,
      "gray": 1594,
      "wis": 1595,
      "wisps": 1596,
      "tahin": 1597,
      "tahini": 1598,
      "meaty": 1599,
      "ric": 1600,
      "crumbly": 1601,
      "clams": 1602,
      "grayish": 1603,
      "hai": 1604,
      "Thai": 1605,
      "oven": 1606,
      "grid": 1607,
      "plates": 1608,
      "trus": 1609,
      "ares": 1610,
      "ade": 1611,
      "chickpe": 1612,
      "squares": 1613,
      "meg": 1614,
      "glas": 1615,
      "arom": 1616,
      "nutmeg": 1617,
      "aromas": 1618,
      "tte": 1619,
      "citrus": 1620,
      "out": 1621,
      "grette": 1622,
      "aigrette": 1623,
      "vinaigrette": 1624,
      "je": 1625,
      "inade": 1626,
      "marinade": 1627,
      "mild": 1628,
      "turmer": 1629,
      "proteins": 1630,
      "turmeric": 1631,
      "fava": 1632,
      "chickpeas": 1633,
      "rong": 1634,
      "airs": 1635,
      "reg": 1636,
      "stew": 1637,
      "flecks": 1638,
      "it": 1639,
      "pairs": 1640,
      "wooden": 1641,
      "edible": 1642,
      "liver": 1643,
      "concent": 1644,
      "brous": 1645,
      "cups": 1646,
      "fibrous": 1647,
      "concentric": 1648,
      "salads": 1649,
      "ener": 1650,
      "seal": 1651,
      "regular": 1652,
      "irregular": 1653,
      "sto": 1654,
      "sealed": 1655,
      "Asi": 1656,
      "Asian": 1657,
      "pastries": 1658,
      "crimp": 1659,
      "crimped": 1660,
      "sty": 1661,
      "strong": 1662,
      "style": 1663,
      "sco": 1664,
      "heat": 1665,
      "gener": 1666,
      "glass": 1667,
      "tor": 1668,
      "tan": 1669,
      "source": 1670,
      "strawberries": 1671,
      "generous": 1672,
      "stove": 1673,
      "lor": 1674,
      "parlor": 1675,
      "forked": 1676,
      "atu": 1677,
      "bowls": 1678,
      "cereal": 1679,
      "torch": 1680,
      "bok": 1681,
      "choy": 1682,
      "divi": 1683,
      "indivi": 1684,
      "dual": 1685,
      "individual": 1686,
      "spong": 1687,
      "spongy": 1688,
      "around": 1689,
      "squid": 1690,
      "angles": 1691,
      "rectangles": 1692,
      "af": 1693,
      "loaf": 1694,
      "sausages": 1695,
      "met": 1696,
      "cooking": 1697,
      "grano": 1698,
      "granola": 1699,
      "gan": 1700,
      "invi": 1701,
      "rim": 1702,
      "inviting": 1703,
      "mage": 1704,
      "metal": 1705,
      "ot": 1706,
      "dill": 1707,
      "ched": 1708,
      "stru": 1709,
      "plant": 1710,
      "atta": 1711,
      "ache": 1712,
      "ganache": 1713,
      "attached": 1714,
      "points": 1715,
      "cetta": 1716,
      "pancetta": 1717,
      "atula": 1718,
      "fin": 1719,
      "finish": 1720,
      "del": 1721,
      "strudel": 1722,
      "game": 1723,
      "plumage": 1724,
      "gamey": 1725,
      "ko": 1726,
      "panko": 1727,
      "pot": 1728,
      "donut": 1729,
      "option": 1730,
      "ladle": 1731,
      "protein": 1732,
      "ody": 1733,
      "coun": 1734,
      "counter": 1735,
      "head": 1736,
      "body": 1737,
      "proje": 1738,
      "projection": 1739,
      "ppy": 1740,
      "poppy": 1741,
      "neck": 1742,
      "ni": 1743,
      "rate": 1744,
      "congr": 1745,
      "atulation": 1746,
      "congratulation": 1747,
      "brate": 1748,
      "cele": 1749,
      "mashedpotato": 1750,
      "yolk": 1751,
      "celebrate": 1752,
      "fac": 1753,
      "pillowy": 1754,
      "gy": 1755,
      "optionally": 1756,
      "gyro": 1757,
      "scoop": 1758,
      "Fre": 1759,
      "kni": 1760,
      "French": 1761,
      "ond": 1762,
      "utensils": 1763,
      "filo": 1764,
      "caramel": 1765,
      "ay": 1766,
      "ranges": 1767,
      "variable": 1768,
      "fond": 1769,
      "fondant": 1770,
      "cres": 1771,
      "apples": 1772,
      "flavored": 1773,
      "crescent": 1774,
      "saladplate": 1775,
      "ller": 1776,
      "cruller": 1777,
      "gim": 1778,
      "roast": 1779,
      "baking": 1780,
      "surrounded": 1781,
      "roasted": 1782,
      "table": 1783,
      "rounded": 1784,
      "corn": 1785,
      "med": 1786,
      "tice": 1787,
      "lattice": 1788,
      "BB": 1789,
      "BBQ": 1790,
      "crescentroll": 1791,
      "taur": 1792,
      "restaur": 1793,
      "el": 1794,
      "foot": 1795,
      "flow": 1796,
      "restaurant": 1797,
      "crabmeat": 1798,
      "omme": 1799,
      "consomme": 1800,
      "charred": 1801,
      "container": 1802,
      "its": 1803,
      "liqu": 1804,
      "liquid": 1805,
      "flowers": 1806,
      "casual": 1807,
      "atess": 1808,
      "delic": 1809,
      "uted": 1810,
      "sourcream": 1811,
      "fluted": 1812,
      "atessen": 1813,
      "delicatessen": 1814,
      "door": 1815,
      "ctions": 1816,
      "swirly": 1817,
      "shar": 1818,
      "sections": 1819,
      "crus": 1820,
      "cand": 1821,
      "up": 1822,
      "sharp": 1823,
      "set": 1824,
      "cean": 1825,
      "radial": 1826,
      "serole": 1827,
      "casserole": 1828,
      "outdoor": 1829,
      "tacean": 1830,
      "cookie": 1831,
      "board": 1832,
      "crustacean": 1833,
      "trifle": 1834,
      "water": 1835,
      "tie": 1836,
      "forks": 1837,
      "knives": 1838,
      "topper": 1839,
      "background": 1840,
      "bolotie": 1841,
      "stripes": 1842,
      "faces": 1843,
      "ped": 1844,
      "surfaces": 1845,
      "sized": 1846,
      "hel": 1847,
      "meatloaf": 1848,
      "setting": 1849,
      "fleshy": 1850,
      "rocks": 1851,
      "anchor": 1852,
      "helps": 1853,
      "so": 1854,
      "reci": 1855,
      "brownies": 1856,
      "recipe": 1857,
      "turn": 1858,
      "ky": 1859,
      "own": 1860,
      "chunky": 1861,
      "spoonful": 1862,
      "ugh": 1863,
      "less": 1864,
      "meatball": 1865,
      "plating": 1866,
      "part": 1867,
      "ob": 1868,
      "rough": 1869,
      "foil": 1870,
      "ei": 1871,
      "custards": 1872,
      "either": 1873,
      "stem": 1874,
      "lab": 1875,
      "vegetable": 1876,
      "partic": 1877,
      "through": 1878,
      "spoons": 1879,
      "throughout": 1880,
      "particles": 1881,
      "pre": 1882,
      "slab": 1883,
      "materi": 1884,
      "material": 1885,
      "fait": 1886,
      "parfait": 1887,
      "disp": 1888,
      "nap": 1889,
      "good": 1890,
      "qui": 1891,
      "rimmed": 1892,
      "ia": 1893,
      "display": 1894,
      "rimless": 1895,
      "cornbread": 1896,
      "pla": 1897,
      "rolled": 1898,
      "whippedcream": 1899,
      "dge": 1900,
      "ject": 1901,
      "object": 1902,
      "amoun": 1903,
      "amount": 1904,
      "place": 1905,
      "down": 1906,
      "ist": 1907,
      "raised": 1908,
      "turnover": 1909,
      "tang": 1910,
      "eria": 1911,
      "cafet": 1912,
      "bir": 1913,
      "tangy": 1914,
      "cafeteria": 1915,
      "liner": 1916,
      "sion": 1917,
      "shel": 1918,
      "shelves": 1919,
      "ba": 1920,
      "dan": 1921,
      "ji": 1922,
      "men": 1923,
      "sme": 1924,
      "muji": 1925,
      "danmuji": 1926,
      "smell": 1927,
      "cracker": 1928,
      "lair": 1929,
      "buttercream": 1930,
      "eclair": 1931,
      "preser": 1932,
      "mat": 1933,
      "specialty": 1934,
      "preserves": 1935,
      "tru": 1936,
      "acros": 1937,
      "moist": 1938,
      "across": 1939,
      "day": 1940,
      "labe": 1941,
      "breaded": 1942,
      "lump": 1943,
      "kins": 1944,
      "napkins": 1945,
      "grill": 1946,
      "confectioner": 1947,
      "placemat": 1948,
      "ffle": 1949,
      "truffle": 1950,
      "shop": 1951,
      "curd": 1952,
      "beancurd": 1953,
      "May": 1954,
      "ear": 1955,
      "tab": 1956,
      "almon": 1957,
      "quiche": 1958,
      "guet": 1959,
      "baguet": 1960,
      "fudge": 1961,
      "cracked": 1962,
      "cookies": 1963,
      "wide": 1964,
      "meas": 1965,
      "aks": 1966,
      "peaks": 1967,
      "single": 1968,
      "buck": 1969,
      "measur": 1970,
      "reco": 1971,
      "gniz": 1972,
      "cones": 1973,
      "scoops": 1974,
      "recogniz": 1975,
      "recognizable": 1976,
      "prepar": 1977,
      "ath": 1978,
      "clo": 1979,
      "ris": 1980,
      "bakery": 1981,
      "twisty": 1982,
      "tr": 1983,
      "under": 1984,
      "striped": 1985,
      "cutting": 1986,
      "rising": 1987,
      "neath": 1988,
      "lumps": 1989,
      "buckwheat": 1990,
      "underneath": 1991,
      "indic": 1992,
      "shak": 1993,
      "soupbowl": 1994,
      "shine": 1995,
      "thday": 1996,
      "birthday": 1997,
      "almonds": 1998,
      "birthdaycake": 1999,
      "kit": 2000,
      "chen": 2001,
      "kitchen": 2002,
      "rap": 2003,
      "scone": 2004,
      "wrap": 2005,
      "prepared": 2006,
      "tran": 2007,
      "wraps": 2008,
      "da": 2009,
      "fins": 2010,
      "ows": 2011,
      "milkshak": 2012,
      "milkshake": 2013,
      "diet": 2014,
      "appear": 2015,
      "tick": 2016,
      "arent": 2017,
      "sparent": 2018,
      "chops": 2019,
      "presentation": 2020,
      "transparent": 2021,
      "chopstick": 2022,
      "tty": 2023,
      "asco": 2024,
      "iness": 2025,
      "gritty": 2026,
      "ue": 2027,
      "work": 2028,
      "outh": 2029,
      "shmall": 2030,
      "lef": 2031,
      "curled": 2032,
      "marshmall": 2033,
      "goods": 2034,
      "tabasco": 2035,
      "marshmallows": 2036,
      "tabascosauce": 2037,
      "cin": 2038,
      "tover": 2039,
      "capp": 2040,
      "sweetness": 2041,
      "form": 2042,
      "uccin": 2043,
      "leftover": 2044,
      "cappuccin": 2045,
      "cappuccino": 2046,
      "even": 2047,
      "tz": 2048,
      "erber": 2049,
      "sherber": 2050,
      "crunchiness": 2051,
      "sherbert": 2052,
      "ingue": 2053,
      "holes": 2054,
      "feet": 2055,
      "meringue": 2056,
      "indication": 2057,
      "evenly": 2058,
      "den": 2059,
      "sta": 2060,
      "spreads": 2061,
      "tripe": 2062,
      "fes": 2063,
      "sod": 2064,
      "refresh": 2065,
      "photo": 2066,
      "soda": 2067,
      "refreshment": 2068,
      "ance": 2069,
      "candy": 2070,
      "appearance": 2071,
      "pack": 2072,
      "webb": 2073,
      "webbed": 2074,
      "arti": 2075,
      "dimen": 2076,
      "decoration": 2077,
      "knife": 2078,
      "sional": 2079,
      "dimensional": 2080,
      "au": 2081,
      "she": 2082,
      "wear": 2083,
      "containers": 2084,
      "hand": 2085,
      "piped": 2086,
      "ote": 2087,
      "oves": 2088,
      "slen": 2089,
      "working": 2090,
      "slender": 2091,
      "bage": 2092,
      "hooves": 2093,
      "few": 2094,
      "cloven": 2095,
      "bagel": 2096,
      "tle": 2097,
      "dull": 2098,
      "graham": 2099,
      "labeling": 2100,
      "denote": 2101,
      "sheen": 2102,
      "cle": 2103,
      "ol": 2104,
      "greyish": 2105,
      "cutlets": 2106,
      "wearing": 2107,
      "bl": 2108,
      "glasses": 2109,
      "candle": 2110,
      "tre": 2111,
      "shed": 2112,
      "cont": 2113,
      "forma": 2114,
      "crushed": 2115,
      "Gre": 2116,
      "low": 2117,
      "shot": 2118,
      "patron": 2119,
      "formation": 2120,
      "Greek": 2121,
      "information": 2122,
      "treat": 2123,
      "cub": 2124,
      "contents": 2125,
      "unbreaded": 2126,
      "logo": 2127,
      "baguette": 2128,
      "chef": 2129,
      "lid": 2130,
      "blur": 2131,
      "patrons": 2132,
      "apshot": 2133,
      "rain": 2134,
      "aked": 2135,
      "pub": 2136,
      "snapshot": 2137,
      "tivi": 2138,
      "dipped": 2139,
      "due": 2140,
      "occas": 2141,
      "applesau": 2142,
      "some": 2143,
      "soaked": 2144,
      "tivity": 2145,
      "applesauce": 2146,
      "eating": 2147,
      "joy": 2148,
      "enjoy": 2149,
      "ionally": 2150,
      "here": 2151,
      "chocolatebar": 2152,
      "conf": 2153,
      "stand": 2154,
      "occasionally": 2155,
      "enjoying": 2156,
      "aque": 2157,
      "sign": 2158,
      "opaque": 2159,
      "ident": 2160,
      "cubes": 2161,
      "confident": 2162,
      "din": 2163,
      "atmo": 2164,
      "uni": 2165,
      "sphere": 2166,
      "peanut": 2167,
      "measured": 2168,
      "atmosphere": 2169,
      "um": 2170,
      "ritional": 2171,
      "ution": 2172,
      "resol": 2173,
      "nutritional": 2174,
      "facts": 2175,
      "displaying": 2176,
      "artifacts": 2177,
      "blurring": 2178,
      "resolution": 2179,
      "both": 2180,
      "end": 2181,
      "packa": 2182,
      "uniform": 2183,
      "mouth": 2184,
      "per": 2185,
      "sun": 2186,
      "crink": 2187,
      "candles": 2188,
      "fab": 2189,
      "ial": 2190,
      "atur": 2191,
      "festivity": 2192,
      "handle": 2193,
      "fabric": 2194,
      "mean": 2195,
      "veal": 2196,
      "dae": 2197,
      "clear": 2198,
      "rainbow": 2199,
      "sundae": 2200,
      "buil": 2201,
      "cork": 2202,
      "pop": 2203,
      "arse": 2204,
      "etent": 2205,
      "coarse": 2206,
      "chopping": 2207,
      "demean": 2208,
      "tuff": 2209,
      "competent": 2210,
      "bump": 2211,
      "measuring": 2212,
      "demeanor": 2213,
      "pretz": 2214,
      "pretzel": 2215,
      "bber": 2216,
      "ect": 2217,
      "off": 2218,
      "eggy": 2219,
      "rubber": 2220,
      "smoke": 2221,
      "ranging": 2222,
      "building": 2223,
      "sard": 2224,
      "beer": 2225,
      "proper": 2226,
      "foodstuff": 2227,
      "diner": 2228,
      "sardine": 2229,
      "properly": 2230,
      "pr": 2231,
      "wed": 2232,
      "muscular": 2233,
      "mixing": 2234,
      "condiment": 2235,
      "crinkle": 2236,
      "wedding": 2237,
      "Rect": 2238,
      "hat": 2239,
      "mple": 2240,
      "decorating": 2241,
      "trout": 2242,
      "ature": 2243,
      "chopsticks": 2244,
      "weddingcake": 2245,
      "Rectangular": 2246,
      "stick": 2247,
      "ront": 2248,
      "popover": 2249,
      "dor": 2250,
      "mark": 2251,
      "stone": 2252,
      "combined": 2253,
      "menu": 2254,
      "ale": 2255,
      "thy": 2256,
      "cafe": 2257,
      "tamale": 2258,
      "vendor": 2259,
      "date": 2260,
      "bumpy": 2261,
      "fir": 2262,
      "ki": 2263,
      "tint": 2264,
      "bird": 2265,
      "firm": 2266,
      "cl": 2267,
      "ium": 2268,
      "prong": 2269,
      "medium": 2270,
      "standing": 2271,
      "iron": 2272,
      "spatula": 2273,
      "fied": 2274,
      "cornmeal": 2275,
      "photos": 2276,
      "front": 2277,
      "og": 2278,
      "zi": 2279,
      "lean": 2280,
      "cart": 2281,
      "fry": 2282,
      "imple": 2283,
      "leg": 2284,
      "more": 2285,
      "atzi": 2286,
      "apron": 2287,
      "foam": 2288,
      "peop": 2289,
      "tiers": 2290,
      "custo": 2291,
      "tzatzi": 2292,
      "pronged": 2293,
      "implement": 2294,
      "people": 2295,
      "tzatziki": 2296,
      "slo": 2297,
      "aster": 2298,
      "eggn": 2299,
      "cress": 2300,
      "domed": 2301,
      "gran": 2302,
      "pression": 2303,
      "finished": 2304,
      "watercress": 2305,
      "eggnog": 2306,
      "eggyolk": 2307,
      "box": 2308,
      "market": 2309,
      "ail": 2310,
      "blo": 2311,
      "por": 2312,
      "wine": 2313,
      "espres": 2314,
      "cess": 2315,
      "tions": 2316,
      "boat": 2317,
      "line": 2318,
      "case": 2319,
      "facial": 2320,
      "turned": 2321,
      "espresso": 2322,
      "rand": 2323,
      "ttle": 2324,
      "hotplate": 2325,
      "string": 2326,
      "featur": 2327,
      "berry": 2328,
      "options": 2329,
      "downturned": 2330,
      "label": 2331,
      "packaged": 2332,
      "Afri": 2333,
      "South": 2334,
      "name": 2335,
      "root": 2336,
      "spir": 2337,
      "African": 2338,
      "spiral": 2339,
      "ban": 2340,
      "mant": 2341,
      "othi": 2342,
      "ends": 2343,
      "coaster": 2344,
      "saucer": 2345,
      "prin": 2346,
      "icle": 2347,
      "ical": 2348,
      "unt": 2349,
      "stor": 2350,
      "smoothi": 2351,
      "bottle": 2352,
      "napkin": 2353,
      "stall": 2354,
      "features": 2355,
      "smoothie": 2356,
      "cm": 2357,
      "claw": 2358,
      "gro": 2359,
      "quail": 2360,
      "text": 2361,
      "brand": 2362,
      "eas": 2363,
      "no": 2364,
      "sti": 2365,
      "liday": 2366,
      "holiday": 2367,
      "pies": 2368,
      "soupspoon": 2369,
      "dified": 2370,
      "thing": 2371,
      "puff": 2372,
      "sprinkling": 2373,
      "blueberry": 2374,
      "process": 2375,
      "solidified": 2376,
      "clothing": 2377,
      "festive": 2378,
      "frying": 2379,
      "until": 2380,
      "stir": 2381,
      "25": 2382,
      "pis": 2383,
      "inten": 2384,
      "about": 2385,
      "tachi": 2386,
      "pit": 2387,
      "plan": 2388,
      "protect": 2389,
      "peanutbutter": 2390,
      "stringcheese": 2391,
      "pistachi": 2392,
      "intense": 2393,
      "pistachio": 2394,
      "vour": 2395,
      "lain": 2396,
      "celain": 2397,
      "flavour": 2398,
      "vetop": 2399,
      "stovetop": 2400,
      "materials": 2401,
      "porcelain": 2402,
      "printed": 2403,
      "flavours": 2404,
      "cts": 2405,
      "fic": 2406,
      "ga": 2407,
      "ots": 2408,
      "sed": 2409,
      "chers": 2410,
      "romant": 2411,
      "psicle": 2412,
      "popsicle": 2413,
      "lumpy": 2414,
      "blog": 2415,
      "romantic": 2416,
      "aw": 2417,
      "mis": 2418,
      "ily": 2419,
      "mper": 2420,
      "pants": 2421,
      "products": 2422,
      "protective": 2423,
      "additions": 2424,
      "pastel": 2425,
      "scooping": 2426,
      "cloth": 2427,
      "fryingpan": 2428,
      "ele": 2429,
      "heal": 2430,
      "ige": 2431,
      "image": 2432,
      "mers": 2433,
      "vent": 2434,
      "anced": 2435,
      "llow": 2436,
      "refri": 2437,
      "coat": 2438,
      "coho": 2439,
      "temper": 2440,
      "beige": 2441,
      "unmis": 2442,
      "spots": 2443,
      "alcoho": 2444,
      "odor": 2445,
      "hollow": 2446,
      "takable": 2447,
      "waffleiron": 2448,
      "gravyboat": 2449,
      "meals": 2450,
      "balanced": 2451,
      "packaging": 2452,
      "customers": 2453,
      "easily": 2454,
      "healthy": 2455,
      "refriger": 2456,
      "temperature": 2457,
      "unmistakable": 2458,
      "tis": 2459,
      "wri": 2460,
      "row": 2461,
      "store": 2462,
      "patterns": 2463,
      "labels": 2464,
      "stal": 2465,
      "staff": 2466,
      "equi": 2467,
      "event": 2468,
      "mor": 2469,
      "natur": 2470,
      "pment": 2471,
      "ister": 2472,
      "aci": 2473,
      "cket": 2474,
      "hair": 2475,
      "pocket": 2476,
      "oliveoil": 2477,
      "tridge": 2478,
      "partridge": 2479,
      "sno": 2480,
      "paperplate": 2481,
      "casing": 2482,
      "granu": 2483,
      "storing": 2484,
      "equipment": 2485,
      "natural": 2486,
      "wai": 2487,
      "ash": 2488,
      "cous": 2489,
      "depression": 2490,
      "viscous": 2491,
      "pestle": 2492,
      "swirl": 2493,
      "chickpea": 2494,
      "almond": 2495,
      "granules": 2496,
      "ate": 2497,
      "ages": 2498,
      "four": 2499,
      "oat": 2500,
      "wind": 2501,
      "seating": 2502,
      "tal": 2503,
      "cray": 2504,
      "cubed": 2505,
      "conces": 2506,
      "larger": 2507,
      "squash": 2508,
      "interiors": 2509,
      "leaf": 2510,
      "cash": 2511,
      "held": 2512,
      "register": 2513,
      "tables": 2514,
      "artific": 2515,
      "slope": 2516,
      "alcohol": 2517,
      "crayfish": 2518,
      "artificial": 2519,
      "wing": 2520,
      "arrow": 2521,
      "sear": 2522,
      "aper": 2523,
      "service": 2524,
      "molded": 2525,
      "area": 2526,
      "beverages": 2527,
      "bag": 2528,
      "signage": 2529,
      "nose": 2530,
      "pitchers": 2531,
      "concession": 2532,
      "io": 2533,
      "narrow": 2534,
      "rer": 2535,
      "slight": 2536,
      "cher": 2537,
      "orn": 2538,
      "combs": 2539,
      "amil": 2540,
      "making": 2541,
      "ator": 2542,
      "card": 2543,
      "title": 2544,
      "mber": 2545,
      "cutlery": 2546,
      "soyamil": 2547,
      "ards": 2548,
      "patio": 2549,
      "tablecloth": 2550,
      "rootbeer": 2551,
      "group": 2552,
      "soyamilk": 2553,
      "bin": 2554,
      "band": 2555,
      "mes": 2556,
      "int": 2557,
      "than": 2558,
      "rece": 2559,
      "limb": 2560,
      "atti": 2561,
      "une": 2562,
      "breads": 2563,
      "mitra": 2564,
      "tinfoil": 2565,
      "eye": 2566,
      "lines": 2567,
      "gyromitra": 2568,
      "claws": 2569,
      "elements": 2570,
      "waiter": 2571,
      "attire": 2572,
      "draw": 2573,
      "hus": 2574,
      "stain": 2575,
      "smil": 2576,
      "lami": 2577,
      "salami": 2578,
      "limi": 2579,
      "inkie": 2580,
      "basket": 2581,
      "ingredient": 2582,
      "ressed": 2583,
      "compressed": 2584,
      "guards": 2585,
      "steel": 2586,
      "twinkie": 2587,
      "tini": 2588,
      "mug": 2589,
      "martini": 2590,
      "expression": 2591,
      "snout": 2592,
      "thered": 2593,
      "vender": 2594,
      "posture": 2595,
      "legs": 2596,
      "banan": 2597,
      "gathered": 2598,
      "seared": 2599,
      "limbed": 2600,
      "smiling": 2601,
      "limited": 2602,
      "Gener": 2603,
      "cast": 2604,
      "dra": 2605,
      "dru": 2606,
      "eel": 2607,
      "gin": 2608,
      "gus": 2609,
      "jar": 2610,
      "mstick": 2611,
      "ner": 2612,
      "pra": 2613,
      "para": 2614,
      "rat": 2615,
      "ving": 2616,
      "aspara": 2617,
      "rock": 2618,
      "amer": 2619,
      "friend": 2620,
      "breadcrumb": 2621,
      "faint": 2622,
      "conical": 2623,
      "vir": 2624,
      "key": 2625,
      "circles": 2626,
      "refrigerator": 2627,
      "mortar": 2628,
      "acidic": 2629,
      "stainless": 2630,
      "Generally": 2631,
      "drumstick": 2632,
      "asparagus": 2633,
      "jec": 2634,
      "umin": 2635,
      "xie": 2636,
      "isture": 2637,
      "inch": 2638,
      "any": 2639,
      "ons": 2640,
      "ets": 2641,
      "ican": 2642,
      "teac": 2643,
      "tequi": 2644,
      "cabin": 2645,
      "tall": 2646,
      "alumin": 2647,
      "craw": 2648,
      "eggplant": 2649,
      "moisture": 2650,
      "dixie": 2651,
      "flavorful": 2652,
      "smok": 2653,
      "bons": 2654,
      "grap": 2655,
      "ribbons": 2656,
      "device": 2657,
      "picture": 2658,
      "protrus": 2659,
      "designed": 2660,
      "selections": 2661,
      "objec": 2662,
      "signs": 2663,
      "customer": 2664,
      "plantain": 2665,
      "stalks": 2666,
      "snoek": 2667,
      "cardboard": 2668,
      "husk": 2669,
      "virgin": 2670,
      "teacup": 2671,
      "tequila": 2672,
      "aluminum": 2673,
      "crawfish": 2674,
      "dixiecup": 2675,
      "protrusions": 2676,
      "objects": 2677,
      "Cer": 2678,
      "gi": 2679,
      "gli": 2680,
      "ping": 2681,
      "pers": 2682,
      "soil": 2683,
      "taper": 2684,
      "estab": 2685,
      "coated": 2686,
      "spill": 2687,
      "weight": 2688,
      "types": 2689,
      "fruity": 2690,
      "cured": 2691,
      "curves": 2692,
      "greenbean": 2693,
      "wrapping": 2694,
      "lishment": 2695,
      "bubbly": 2696,
      "court": 2697,
      "figur": 2698,
      "packet": 2699,
      "prune": 2700,
      "leafy": 2701,
      "prawn": 2702,
      "american": 2703,
      "smoked": 2704,
      "Ceramic": 2705,
      "glitter": 2706,
      "person": 2707,
      "tapered": 2708,
      "establishment": 2709,
      "spills": 2710,
      "bust": 2711,
      "bind": 2712,
      "net": 2713,
      "rt": 2714,
      "tten": 2715,
      "chairs": 2716,
      "high": 2717,
      "inter": 2718,
      "latin": 2719,
      "sage": 2720,
      "amber": 2721,
      "coloration": 2722,
      "mole": 2723,
      "sweetener": 2724,
      "strat": 2725,
      "deser": 2726,
      "gee": 2727,
      "gelatin": 2728,
      "butcher": 2729,
      "hind": 2730,
      "holding": 2731,
      "heart": 2732,
      "flower": 2733,
      "appears": 2734,
      "branding": 2735,
      "written": 2736,
      "message": 2737,
      "dragee": 2738,
      "keyboard": 2739,
      "binders": 2740,
      "fur": 2741,
      "ima": 2742,
      "ified": 2743,
      "ph": 2744,
      "phi": 2745,
      "pin": 2746,
      "pet": 2747,
      "phon": 2748,
      "posed": 2749,
      "tings": 2750,
      "ines": 2751,
      "rotis": 2752,
      "robust": 2753,
      "cob": 2754,
      "ouse": 2755,
      "ppine": 2756,
      "egrad": 2757,
      "shad": 2758,
      "shade": 2759,
      "behind": 2760,
      "lippine": 2761,
      "seen": 2762,
      "serie": 2763,
      "acting": 2764,
      "odegrad": 2765,
      "tip": 2766,
      "tial": 2767,
      "stre": 2768,
      "vert": 2769,
      "poten": 2770,
      "wax": 2771,
      "centerpiece": 2772,
      "peppery": 2773,
      "biodegrad": 2774,
      "masa": 2775,
      "exposed": 2776,
      "strip": 2777,
      "scoopable": 2778,
      "media": 2779,
      "settings": 2780,
      "menus": 2781,
      "earthy": 2782,
      "preparation": 2783,
      "signature": 2784,
      "banner": 2785,
      "stirrer": 2786,
      "tissu": 2787,
      "writing": 2788,
      "window": 2789,
      "drawers": 2790,
      "cabinets": 2791,
      "interacting": 2792,
      "stratified": 2793,
      "philippine": 2794,
      "rotisserie": 2795,
      "potential": 2796,
      "biodegradable": 2797,
      "Small": 2798,
      "agar": 2799,
      "ft": 2800,
      "land": 2801,
      "mang": 2802,
      "oes": 2803,
      "ption": 2804,
      "rant": 2805,
      "vib": 2806,
      "wor": 2807,
      "hicle": 2808,
      "rop": 2809,
      "icons": 2810,
      "cau": 2811,
      "bead": 2812,
      "members": 2813,
      "vehicle": 2814,
      "varies": 2815,
      "lightweight": 2816,
      "spiced": 2817,
      "gloss": 2818,
      "scatter": 2819,
      "bit": 2820,
      "drizzle": 2821,
      "ternal": 2822,
      "crusty": 2823,
      "social": 2824,
      "forms": 2825,
      "bumps": 2826,
      "carton": 2827,
      "slogan": 2828,
      "plank": 2829,
      "desert": 2830,
      "images": 2831,
      "vibrant": 2832,
      "beads": 2833,
      "scattered": 2834,
      "ker": 2835,
      "man": 2836,
      "pon": 2837,
      "pow": 2838,
      "seg": 2839,
      "tting": 2840,
      "ume": 2841,
      "refle": 2842,
      "coll": 2843,
      "advert": 2844,
      "acorn": 2845,
      "flame": 2846,
      "motions": 2847,
      "goody": 2848,
      "tight": 2849,
      "rolling": 2850,
      "dozen": 2851,
      "city": 2852,
      "crock": 2853,
      "caper": 2854,
      "tines": 2855,
      "booth": 2856,
      "bobb": 2857,
      "pical": 2858,
      "tropical": 2859,
      "coconuts": 2860,
      "displays": 2861,
      "ears": 2862,
      "bucket": 2863,
      "indicate": 2864,
      "handles": 2865,
      "dining": 2866,
      "choppingboard": 2867,
      "fryer": 2868,
      "legume": 2869,
      "granular": 2870,
      "refrigerated": 2871,
      "stalk": 2872,
      "reception": 2873,
      "bananas": 2874,
      "figurines": 2875,
      "shades": 2876,
      "agaric": 2877,
      "landsca": 2878,
      "mangoes": 2879,
      "power": 2880,
      "reflective": 2881,
      "bobbing": 2882,
      "12": 2883,
      "16": 2884,
      "drop": 2885,
      "elect": 2886,
      "eight": 2887,
      "fli": 2888,
      "frame": 2889,
      "five": 2890,
      "gs": 2891,
      "happ": 2892,
      "ip": 2893,
      "kes": 2894,
      "mmet": 2895,
      "mdrop": 2896,
      "plish": 2897,
      "uter": 2898,
      "use": 2899,
      "yam": 2900,
      "ette": 2901,
      "ens": 2902,
      "code": 2903,
      "cock": 2904,
      "supp": 2905,
      "ices": 2906,
      "will": 2907,
      "male": 2908,
      "bear": 2909,
      "liflower": 2910,
      "lift": 2911,
      "ures": 2912,
      "action": 2913,
      "lication": 2914,
      "tub": 2915,
      "pile": 2916,
      "soups": 2917,
      "chocolatemilk": 2918,
      "digi": 2919,
      "frothy": 2920,
      "conne": 2921,
      "application": 2922,
      "hotsauce": 2923,
      "sweetpotato": 2924,
      "symb": 2925,
      "vie": 2926,
      "opy": 2927,
      "computer": 2928,
      "isement": 2929,
      "gumdrop": 2930,
      "leton": 2931,
      "deeply": 2932,
      "bridge": 2933,
      "cucumber": 2934,
      "sitting": 2935,
      "ysical": 2936,
      "chinaw": 2937,
      "comes": 2938,
      "purplish": 2939,
      "fire": 2940,
      "nip": 2941,
      "logos": 2942,
      "crinkly": 2943,
      "clus": 2944,
      "stirring": 2945,
      "hairstyle": 2946,
      "snoopy": 2947,
      "receip": 2948,
      "physical": 2949,
      "cauliflower": 2950,
      "advertisement": 2951,
      "happy": 2952,
      "cocktail": 2953,
      "digital": 2954,
      "connect": 2955,
      "chinaware": 2956,
      "receipt": 2957,
      ".)": 2958,
      "ag": 2959,
      "bus": 2960,
      "cco": 2961,
      "cashi": 2962,
      "dbit": 2963,
      "fib": 2964,
      "hen": 2965,
      "mouse": 2966,
      "nu": 2967,
      "ptop": 2968,
      "pict": 2969,
      "rind": 2970,
      "scre": 2971,
      "sions": 2972,
      "tish": 2973,
      "wrink": 2974,
      "wok": 2975,
      "yet": 2976,
      "whitish": 2977,
      "ase": 2978,
      "estal": 2979,
      "internal": 2980,
      "laptop": 2981,
      "eter": 2982,
      "tot": 2983,
      "amp": 2984,
      "cate": 2985,
      "lip": 2986,
      "lion": 2987,
      "member": 2988,
      "spork": 2989,
      "splat": 2990,
      "spout": 2991,
      "brocco": 2992,
      "server": 2993,
      "activity": 2994,
      "depen": 2995,
      "mold": 2996,
      "moving": 2997,
      "tila": 2998,
      "tidbit": 2999,
      "plateau": 3000,
      "cooker": 3001,
      "having": 3002,
      "pure": 3003,
      "mbrer": 3004,
      "butchers": 3005,
      "feature": 3006,
      "capaci": 3007,
      "cord": 3008,
      "human": 3009,
      "blackish": 3010,
      "extra": 3011,
      "expres": 3012,
      "milar": 3013,
      "turd": 3014,
      "ounces": 3015,
      "boiledegg": 3016,
      "ronic": 3017,
      "similar": 3018,
      "skeleton": 3019,
      "triangles": 3020,
      "post": 3021,
      "couple": 3022,
      "coupon": 3023,
      "woods": 3024,
      "pedestal": 3025,
      "sombrer": 3026,
      "workers": 3027,
      "element": 3028,
      "windows": 3029,
      "eyeball": 3030,
      "banana": 3031,
      "waxy": 3032,
      "segment": 3033,
      "crockpot": 3034,
      "electronic": 3035,
      "flier": 3036,
      "symbol": 3037,
      "view": 3038,
      "cluster": 3039,
      "cashier": 3040,
      "fiber": 3041,
      "pictures": 3042,
      "splatter": 3043,
      "broccoli": 3044,
      "depending": 3045,
      "capacity": 3046,
      "expressions": 3047,
      "sombrero": 3048,
      "012": 3049,
      "2012": 3050,
      "bou": 3051,
      "bill": 3052,
      "bod": 3053,
      "clay": 3054,
      "evi": 3055,
      "eable": 3056,
      "fer": 3057,
      "fie": 3058,
      "gas": 3059,
      "hor": 3060,
      "hore": 3061,
      "ied": 3062,
      "py": 3063,
      "pth": 3064,
      "ration": 3065,
      "stu": 3066,
      "smi": 3067,
      "tt": 3068,
      "wall": 3069,
      "xible": 3070,
      "yond": 3071,
      "ased": 3072,
      "asso": 3073,
      "order": 3074,
      "est": 3075,
      "intri": 3076,
      "indoor": 3077,
      "lakes": 3078,
      "rical": 3079,
      "enough": 3080,
      "sale": 3081,
      "teab": 3082,
      "beyond": 3083,
      "crema": 3084,
      "unpackaged": 3085,
      "section": 3086,
      "tag": 3087,
      "cartila": 3088,
      "brownish": 3089,
      "depth": 3090,
      "ray": 3091,
      "mpled": 3092,
      "tube": 3093,
      "sandy": 3094,
      "host": 3095,
      "mott": 3096,
      "efront": 3097,
      "tips": 3098,
      "tique": 3099,
      "dirt": 3100,
      "layout": 3101,
      "malleable": 3102,
      "symmet": 3103,
      "ciated": 3104,
      "space": 3105,
      "ramid": 3106,
      "butt": 3107,
      "greenish": 3108,
      "greenonion": 3109,
      "orangejuice": 3110,
      "shirt": 3111,
      "animal": 3112,
      "brother": 3113,
      "sels": 3114,
      "epaper": 3115,
      "lemonade": 3116,
      "linens": 3117,
      "papery": 3118,
      "pouring": 3119,
      "honeycomb": 3120,
      "exten": 3121,
      "turnip": 3122,
      "siphon": 3123,
      "new": 3124,
      "twists": 3125,
      "slits": 3126,
      "flexible": 3127,
      "heating": 3128,
      "elmo": 3129,
      "dence": 3130,
      "stack": 3131,
      "package": 3132,
      "peri": 3133,
      "sticks": 3134,
      "leaning": 3135,
      "granny": 3136,
      "block": 3137,
      "porous": 3138,
      "mantle": 3139,
      "storefront": 3140,
      "rocky": 3141,
      "graph": 3142,
      "petri": 3143,
      "street": 3144,
      "tissuepaper": 3145,
      "word": 3146,
      "landscape": 3147,
      "wrinkled": 3148,
      "boutique": 3149,
      "bodied": 3150,
      "evidence": 3151,
      "field": 3152,
      "pyramid": 3153,
      "associated": 3154,
      "intricate": 3155,
      "lakeshore": 3156,
      "teabag": 3157,
      "cartilage": 3158,
      "hostess": 3159,
      "mottled": 3160,
      "siphons": 3161,
      "ble": 3162,
      "cture": 3163,
      "det": 3164,
      "drain": 3165,
      "emb": 3166,
      "fam": 3167,
      "gon": 3168,
      "ili": 3169,
      "ity": 3170,
      "kn": 3171,
      "lang": 3172,
      "list": 3173,
      "non": 3174,
      "opp": 3175,
      "ols": 3176,
      "pine": 3177,
      "sw": 3178,
      "slu": 3179,
      "sstand": 3180,
      "uage": 3181,
      "wick": 3182,
      "xes": 3183,
      "yen": 3184,
      "ño": 3185,
      "chil": 3186,
      "instru": 3187,
      "ank": 3188,
      "another": 3189,
      "regu": 3190,
      "enga": 3191,
      "enity": 3192,
      "tool": 3193,
      "toaster": 3194,
      "tograph": 3195,
      "sail": 3196,
      "sation": 3197,
      "subs": 3198,
      "amuse": 3199,
      "amenity": 3200,
      "maker": 3201,
      "cell": 3202,
      "call": 3203,
      "cayen": 3204,
      "ppings": 3205,
      "ligh": 3206,
      "memor": 3207,
      "adorn": 3208,
      "created": 3209,
      "creased": 3210,
      "spray": 3211,
      "sexes": 3212,
      "ape": 3213,
      "garbox": 3214,
      "urchin": 3215,
      "als": 3216,
      "reddish": 3217,
      "web": 3218,
      "mit": 3219,
      "peño": 3220,
      "hero": 3221,
      "hermit": 3222,
      "dimple": 3223,
      "frog": 3224,
      "constru": 3225,
      "conden": 3226,
      "osite": 3227,
      "fishnet": 3228,
      "stamp": 3229,
      "melon": 3230,
      "dot": 3231,
      "cigarbox": 3232,
      "crocus": 3233,
      "croppings": 3234,
      "guy": 3235,
      "gestures": 3236,
      "feath": 3237,
      "vessel": 3238,
      "boats": 3239,
      "wagon": 3240,
      "palate": 3241,
      "parent": 3242,
      "brussels": 3243,
      "crumpled": 3244,
      "dress": 3245,
      "tured": 3246,
      "drinker": 3247,
      "speci": 3248,
      "snow": 3249,
      "jalapeño": 3250,
      "fuel": 3251,
      "raisin": 3252,
      "train": 3253,
      "outcroppings": 3254,
      "generally": 3255,
      "torn": 3256,
      "tance": 3257,
      "individuals": 3258,
      "potted": 3259,
      "doors": 3260,
      "sets": 3261,
      "boards": 3262,
      "oblong": 3263,
      "plain": 3264,
      "match": 3265,
      "track": 3266,
      "indicating": 3267,
      "translu": 3268,
      "candybar": 3269,
      "auth": 3270,
      "autograph": 3271,
      "shotglass": 3272,
      "clou": 3273,
      "sloping": 3274,
      "stringy": 3275,
      "easy": 3276,
      "pitted": 3277,
      "drawing": 3278,
      "phone": 3279,
      "tissue": 3280,
      "rollingpin": 3281,
      "support": 3282,
      "connected": 3283,
      "business": 3284,
      "mousepad": 3285,
      "horse": 3286,
      "animals": 3287,
      "extension": 3288,
      "newsstand": 3289,
      "pyramidal": 3290,
      "language": 3291,
      "opposite": 3292,
      "swan": 3293,
      "child": 3294,
      "toasteroven": 3295,
      "substance": 3296,
      "amusement": 3297,
      "cayenne": 3298,
      "adornments": 3299,
      "construction": 3300,
      "condensation": 3301,
      "feathers": 3302,
      "brusselssprouts": 3303,
      "translucent": 3304,
      "Light": 3305,
      "ace": 3306,
      "aff": 3307,
      "agu": 3308,
      "bous": 3309,
      "bris": 3310,
      "dings": 3311,
      "dent": 3312,
      "dune": 3313,
      "ection": 3314,
      "eagu": 3315,
      "glar": 3316,
      "ipop": 3317,
      "lt": 3318,
      "lbous": 3319,
      "mmer": 3320,
      "nic": 3321,
      "ocean": 3322,
      "rist": 3323,
      "stuff": 3324,
      "ure": 3325,
      "van": 3326,
      "vable": 3327,
      "wand": 3328,
      "ware": 3329,
      "xed": 3330,
      "chet": 3331,
      "chill": 3332,
      "chal": 3333,
      "chine": 3334,
      "hic": 3335,
      "iny": 3336,
      "inted": 3337,
      "anten": 3338,
      "llipop": 3339,
      "ref": 3340,
      "remo": 3341,
      "river": 3342,
      "enti": 3343,
      "ences": 3344,
      "toil": 3345,
      "tough": 3346,
      "tools": 3347,
      "sachet": 3348,
      "matte": 3349,
      "machine": 3350,
      "calab": 3351,
      "life": 3352,
      "terrain": 3353,
      "spouts": 3354,
      "seat": 3355,
      "sequ": 3356,
      "series": 3357,
      "take": 3358,
      "coloring": 3359,
      "services": 3360,
      "acter": 3361,
      "access": 3362,
      "debris": 3363,
      "albu": 3364,
      "breast": 3365,
      "vement": 3366,
      "lollipop": 3367,
      "fold": 3368,
      "wel": 3369,
      "webs": 3370,
      "motional": 3371,
      "motor": 3372,
      "movement": 3373,
      "pear": 3374,
      "peace": 3375,
      "tible": 3376,
      "gripping": 3377,
      "herb": 3378,
      "nae": 3379,
      "navi": 3380,
      "froth": 3381,
      "conch": 3382,
      "saltine": 3383,
      "hull": 3384,
      "system": 3385,
      "docks": 3386,
      "queue": 3387,
      "cane": 3388,
      "company": 3389,
      "areas": 3390,
      "beany": 3391,
      "guin": 3392,
      "vest": 3393,
      "grainy": 3394,
      "lass": 3395,
      "fastfood": 3396,
      "powdery": 3397,
      "question": 3398,
      "picnic": 3399,
      "parking": 3400,
      "pouch": 3401,
      "blackberry": 3402,
      "mascot": 3403,
      "experi": 3404,
      "penguin": 3405,
      "bulbous": 3406,
      "barcode": 3407,
      "airtight": 3408,
      "starch": 3409,
      "slit": 3410,
      "identi": 3411,
      "character": 3412,
      "woodenspoon": 3413,
      "glassware": 3414,
      "tank": 3415,
      "structure": 3416,
      "count": 3417,
      "shared": 3418,
      "watermelon": 3419,
      "trump": 3420,
      "cloves": 3421,
      "signboard": 3422,
      "buildings": 3423,
      "printing": 3424,
      "growing": 3425,
      "processed": 3426,
      "alcoholic": 3427,
      "waiting": 3428,
      "friendly": 3429,
      "graphic": 3430,
      "giant": 3431,
      "petals": 3432,
      "colleagu": 3433,
      "tubes": 3434,
      "screen": 3435,
      "fiberglass": 3436,
      "student": 3437,
      "smith": 3438,
      "symmetrical": 3439,
      "famili": 3440,
      "pineapple": 3441,
      "instructions": 3442,
      "memories": 3443,
      "clouds": 3444,
      "Lightly": 3445,
      "affection": 3446,
      "glare": 3447,
      "chilled": 3448,
      "chalk": 3449,
      "antennae": 3450,
      "toilet": 3451,
      "calaba": 3452,
      "sequins": 3453,
      "navig": 3454,
      "experiences": 3455,
      "colleague": 3456,
      "familiar": 3457,
      "QR": 3458,
      "Tab": 3459,
      "aga": 3460,
      "bad": 3461,
      "blen": 3462,
      "border": 3463,
      "cing": 3464,
      "class": 3465,
      "dy": 3466,
      "dad": 3467,
      "ez": 3468,
      "each": 3469,
      "ehead": 3470,
      "fed": 3471,
      "fon": 3472,
      "fra": 3473,
      "flar": 3474,
      "gam": 3475,
      "gill": 3476,
      "groom": 3477,
      "hak": 3478,
      "house": 3479,
      "ider": 3480,
      "ient": 3481,
      "ition": 3482,
      "iment": 3483,
      "jo": 3484,
      "nis": 3485,
      "player": 3486,
      "panda": 3487,
      "ran": 3488,
      "rari": 3489,
      "scar": 3490,
      "sink": 3491,
      "smar": 3492,
      "scl": 3493,
      "ton": 3494,
      "tong": 3495,
      "tating": 3496,
      "tched": 3497,
      "test": 3498,
      "tphone": 3499,
      "umb": 3500,
      "wth": 3501,
      "wom": 3502,
      "worn": 3503,
      "ches": 3504,
      "while": 3505,
      "whisk": 3506,
      "asse": 3507,
      "ora": 3508,
      "organ": 3509,
      "issu": 3510,
      "infan": 3511,
      "era": 3512,
      "ancing": 3513,
      "arca": 3514,
      "ths": 3515,
      "thumb": 3516,
      "rod": 3517,
      "rose": 3518,
      "rotating": 3519,
      "tow": 3520,
      "toy": 3521,
      "toon": 3522,
      "sai": 3523,
      "sample": 3524,
      "sub": 3525,
      "summer": 3526,
      "ameter": 3527,
      "ication": 3528,
      "team": 3529,
      "make": 3530,
      "oup": 3531,
      "tshak": 3532,
      "show": 3533,
      "bels": 3534,
      "lids": 3535,
      "ates": 3536,
      "ater": 3537,
      "address": 3538,
      "cretion": 3539,
      "spit": 3540,
      "spider": 3541,
      "sever": 3542,
      "ghos": 3543,
      "tack": 3544,
      "tact": 3545,
      "creamer": 3546,
      "cartoon": 3547,
      "using": 3548,
      "ustible": 3549,
      "wning": 3550,
      "account": 3551,
      "choke": 3552,
      "deck": 3553,
      "deliver": 3554,
      "race": 3555,
      "lot": 3556,
      "loca": 3557,
      "foal": 3558,
      "flags": 3559,
      "tuxed": 3560,
      "piping": 3561,
      "piration": 3562,
      "efrui": 3563,
      "tit": 3564,
      "freez": 3565,
      "cube": 3566,
      "diameter": 3567,
      "grease": 3568,
      "contro": 3569,
      "contact": 3570,
      "muscle": 3571,
      "oily": 3572,
      "saltshak": 3573,
      "appro": 3574,
      "ossed": 3575,
      "stable": 3576,
      "lying": 3577,
      "pant": 3578,
      "months": 3579,
      "vide": 3580,
      "ffic": 3581,
      "cider": 3582,
      "cantal": 3583,
      "gear": 3584,
      "bonsai": 3585,
      "teddy": 3586,
      "flatfish": 3587,
      "grant": 3588,
      "sugarcane": 3589,
      "pomeg": 3590,
      "arms": 3591,
      "scales": 3592,
      "caption": 3593,
      "book": 3594,
      "pail": 3595,
      "drip": 3596,
      "ford": 3597,
      "formal": 3598,
      "forehead": 3599,
      "carbonated": 3600,
      "parti": 3601,
      "lemons": 3602,
      "brim": 3603,
      "tennis": 3604,
      "steamer": 3605,
      "blackboard": 3606,
      "marine": 3607,
      "fruitjuice": 3608,
      "zzy": 3609,
      "halo": 3610,
      "proportion": 3611,
      "external": 3612,
      "excretion": 3613,
      "expiration": 3614,
      "turban": 3615,
      "includes": 3616,
      "steakknife": 3617,
      "bug": 3618,
      "bald": 3619,
      "textured": 3620,
      "washed": 3621,
      "visuals": 3622,
      "silk": 3623,
      "fuzzy": 3624,
      "trail": 3625,
      "traffic": 3626,
      "opening": 3627,
      "artist": 3628,
      "combustible": 3629,
      "walker": 3630,
      "ladybug": 3631,
      "fig": 3632,
      "fit": 3633,
      "file": 3634,
      "fiable": 3635,
      "stock": 3636,
      "styles": 3637,
      "nipp": 3638,
      "crest": 3639,
      "help": 3640,
      "dispen": 3641,
      "shopfront": 3642,
      "early": 3643,
      "underlying": 3644,
      "shaker": 3645,
      "shaken": 3646,
      "stake": 3647,
      "packed": 3648,
      "artichoke": 3649,
      "sheep": 3650,
      "hands": 3651,
      "handbill": 3652,
      "content": 3653,
      "cubical": 3654,
      "blurry": 3655,
      "stands": 3656,
      "prancing": 3657,
      "marked": 3658,
      "markings": 3659,
      "ails": 3660,
      "random": 3661,
      "featuring": 3662,
      "growth": 3663,
      "branded": 3664,
      "pitcher": 3665,
      "sediment": 3666,
      "search": 3667,
      "cherry": 3668,
      "inches": 3669,
      "grapefrui": 3670,
      "figurine": 3671,
      "flowerpot": 3672,
      "stretched": 3673,
      "words": 3674,
      "collect": 3675,
      "tightly": 3676,
      "booths": 3677,
      "landscaping": 3678,
      "connecting": 3679,
      "numbers": 3680,
      "number": 3681,
      "screw": 3682,
      "laptopcomputer": 3683,
      "clustered": 3684,
      "ferrari": 3685,
      "walls": 3686,
      "buttons": 3687,
      "details": 3688,
      "draining": 3689,
      "embossed": 3690,
      "knob": 3691,
      "ankle": 3692,
      "regulate": 3693,
      "engaged": 3694,
      "sailboat": 3695,
      "lighter": 3696,
      "specific": 3697,
      "matchbox": 3698,
      "author": 3699,
      "reflect": 3700,
      "removable": 3701,
      "album": 3702,
      "website": 3703,
      "identifiable": 3704,
      "trumpeter": 3705,
      "Tabasco": 3706,
      "badge": 3707,
      "classic": 3708,
      "fedora": 3709,
      "fragrant": 3710,
      "flared": 3711,
      "gambels": 3712,
      "houseplant": 3713,
      "ranate": 3714,
      "scarf": 3715,
      "smartphone": 3716,
      "sclera": 3717,
      "tongs": 3718,
      "woman": 3719,
      "infant": 3720,
      "arcade": 3721,
      "thumbnail": 3722,
      "several": 3723,
      "ghost": 3724,
      "delivery": 3725,
      "tuxedo": 3726,
      "freezer": 3727,
      "control": 3728,
      "saltshaker": 3729,
      "cantaloup": 3730,
      "pomegranate": 3731,
      "tennistable": 3732,
      "proportionally": 3733,
      "grapefruit": 3734,
      "00": 3735,
      "Co": 3736,
      "ER": 3737,
      "Hand": 3738,
      "QW": 3739,
      "TY": 3740,
      "Wear": 3741,
      "ais": 3742,
      "bam": 3743,
      "boy": 3744,
      "bai": 3745,
      "brist": 3746,
      "cam": 3747,
      "clos": 3748,
      "camer": 3749,
      "deg": 3750,
      "dents": 3751,
      "ders": 3752,
      "damp": 3753,
      "ee": 3754,
      "eth": 3755,
      "emotional": 3756,
      "fts": 3757,
      "fiz": 3758,
      "fram": 3759,
      "fess": 3760,
      "fined": 3761,
      "gut": 3762,
      "gine": 3763,
      "gir": 3764,
      "hy": 3765,
      "hou": 3766,
      "iri": 3767,
      "iding": 3768,
      "ipant": 3769,
      "jer": 3770,
      "jack": 3771,
      "kers": 3772,
      "lp": 3773,
      "lis": 3774,
      "lon": 3775,
      "lod": 3776,
      "lka": 3777,
      "mm": 3778,
      "mand": 3779,
      "mam": 3780,
      "mun": 3781,
      "mast": 3782,
      "moun": 3783,
      "ners": 3784,
      "nec": 3785,
      "not": 3786,
      "note": 3787,
      "omb": 3788,
      "oline": 3789,
      "put": 3790,
      "play": 3791,
      "pong": 3792,
      "pole": 3793,
      "rin": 3794,
      "rab": 3795,
      "ral": 3796,
      "rating": 3797,
      "racks": 3798,
      "ss": 3799,
      "scho": 3800,
      "slate": 3801,
      "sister": 3802,
      "sens": 3803,
      "tch": 3804,
      "tent": 3805,
      "tened": 3806,
      "tree": 3807,
      "tape": 3808,
      "ult": 3809,
      "vo": 3810,
      "vap": 3811,
      "vents": 3812,
      "vers": 3813,
      "war": 3814,
      "wort": 3815,
      "where": 3816,
      "yor": 3817,
      "youth": 3818,
      "ymmet": 3819,
      "zing": 3820,
      "zomb": 3821,
      "cha": 3822,
      "christ": 3823,
      "hiking": 3824,
      "aspo": 3825,
      "asail": 3826,
      "asymmet": 3827,
      "ory": 3828,
      "orter": 3829,
      "ories": 3830,
      "ests": 3831,
      "inorange": 3832,
      "input": 3833,
      "ants": 3834,
      "anket": 3835,
      "artw": 3836,
      "arinorange": 3837,
      "llas": 3838,
      "rela": 3839,
      "recre": 3840,
      "repe": 3841,
      "rely": 3842,
      "reced": 3843,
      "report": 3844,
      "recent": 3845,
      "reaction": 3846,
      "lake": 3847,
      "lation": 3848,
      "roof": 3849,
      "ingful": 3850,
      "entar": 3851,
      "engine": 3852,
      "toes": 3853,
      "tomor": 3854,
      "coal": 3855,
      "icy": 3856,
      "icon": 3857,
      "wifruit": 3858,
      "tear": 3859,
      "tely": 3860,
      "teard": 3861,
      "teach": 3862,
      "tement": 3863,
      "teeth": 3864,
      "teaspo": 3865,
      "maple": 3866,
      "cel": 3867,
      "cab": 3868,
      "cattle": 3869,
      "sho": 3870,
      "beach": 3871,
      "belt": 3872,
      "lia": 3873,
      "lit": 3874,
      "lips": 3875,
      "limes": 3876,
      "lem": 3877,
      "atus": 3878,
      "ations": 3879,
      "adven": 3880,
      "adult": 3881,
      "tering": 3882,
      "crew": 3883,
      "crete": 3884,
      "crease": 3885,
      "spor": 3886,
      "spark": 3887,
      "spot": 3888,
      "split": 3889,
      "brow": 3890,
      "ional": 3891,
      "sey": 3892,
      "seap": 3893,
      "secu": 3894,
      "serape": 3895,
      "apart": 3896,
      "garfield": 3897,
      "colorless": 3898,
      "carry": 3899,
      "carved": 3900,
      "accur": 3901,
      "allic": 3902,
      "defined": 3903,
      "alog": 3904,
      "cra": 3905,
      "crys": 3906,
      "brellas": 3907,
      "veyor": 3908,
      "tarine": 3909,
      "odical": 3910,
      "love": 3911,
      "loop": 3912,
      "lotion": 3913,
      "loops": 3914,
      "focus": 3915,
      "icker": 3916,
      "mpos": 3917,
      "tulip": 3918,
      "angle": 3919,
      "home": 3920,
      "hood": 3921,
      "pipe": 3922,
      "pirate": 3923,
      "motion": 3924,
      "mobi": 3925,
      "rugs": 3926,
      "effic": 3927,
      "foodprocess": 3928,
      "time": 3929,
      "tiles": 3930,
      "tiliz": 3931,
      "lighting": 3932,
      "grip": 3933,
      "cument": 3934,
      "ldron": 3935,
      "dips": 3936,
      "direct": 3937,
      "frowning": 3938,
      "conver": 3939,
      "concrete": 3940,
      "conveyor": 3941,
      "music": 3942,
      "ized": 3943,
      "append": 3944,
      "hub": 3945,
      "osk": 3946,
      "stature": 3947,
      "strand": 3948,
      "status": 3949,
      "flavorless": 3950,
      "money": 3951,
      "vitam": 3952,
      "dock": 3953,
      "document": 3954,
      "haust": 3955,
      "hays": 3956,
      "pulp": 3957,
      "cans": 3958,
      "geomet": 3959,
      "mbly": 3960,
      "keep": 3961,
      "keys": 3962,
      "cross": 3963,
      "opened": 3964,
      "compound": 3965,
      "butternut": 3966,
      "flattened": 3967,
      "grates": 3968,
      "sugarbowl": 3969,
      "gure": 3970,
      "guest": 3971,
      "guests": 3972,
      "icepack": 3973,
      "polar": 3974,
      "polka": 3975,
      "pasture": 3976,
      "captured": 3977,
      "core": 3978,
      "grazing": 3979,
      "ship": 3980,
      "boo": 3981,
      "pickle": 3982,
      "painted": 3983,
      "dripping": 3984,
      "breaking": 3985,
      "mute": 3986,
      "devices": 3987,
      "rosé": 3988,
      "rosette": 3989,
      "parasail": 3990,
      "parcel": 3991,
      "prices": 3992,
      "beret": 3993,
      "brideg": 3994,
      "pour": 3995,
      "eater": 3996,
      "whel": 3997,
      "wheel": 3998,
      "whee": 3999,
      "kind": 4000,
      "cylinder": 4001,
      "avy": 4002,
      "promotional": 4003,
      "profile": 4004,
      "profess": 4005,
      "bike": 4006,
      "bitter": 4007,
      "bikers": 4008,
      "master": 4009,
      "exci": 4010,
      "exhaust": 4011,
      "parsnip": 4012,
      "dustpan": 4013,
      "tural": 4014,
      "drinking": 4015,
      "grounder": 4016,
      "discolored": 4017,
      "achable": 4018,
      "snicker": 4019,
      "pencil": 4020,
      "juices": 4021,
      "juicy": 4022,
      "textural": 4023,
      "siam": 4024,
      "mintcandy": 4025,
      "silhou": 4026,
      "circle": 4027,
      "pointy": 4028,
      "nel": 4029,
      "plush": 4030,
      "plume": 4031,
      "bars": 4032,
      "barber": 4033,
      "floor": 4034,
      "floater": 4035,
      "airplan": 4036,
      "coffeepot": 4037,
      "coffeemaker": 4038,
      "spiny": 4039,
      "ational": 4040,
      "nylon": 4041,
      "imentar": 4042,
      "swimm": 4043,
      "commun": 4044,
      "holder": 4045,
      "indent": 4046,
      "sky": 4047,
      "posts": 4048,
      "coupe": 4049,
      "tentacle": 4050,
      "plasticbag": 4051,
      "finger": 4052,
      "charcoal": 4053,
      "heavy": 4054,
      "figure": 4055,
      "ovens": 4056,
      "outline": 4057,
      "outfit": 4058,
      "jewel": 4059,
      "ediblecorn": 4060,
      "concentration": 4061,
      "energy": 4062,
      "irregularly": 4063,
      "metallic": 4064,
      "header": 4065,
      "headwear": 4066,
      "niture": 4067,
      "cornet": 4068,
      "restaurants": 4069,
      "doormat": 4070,
      "sharply": 4071,
      "watering": 4072,
      "partner": 4073,
      "participant": 4074,
      "places": 4075,
      "smelling": 4076,
      "truck": 4077,
      "measure": 4078,
      "close": 4079,
      "trac": 4080,
      "indicator": 4081,
      "kitchenette": 4082,
      "dietary": 4083,
      "forming": 4084,
      "sheet": 4085,
      "handheld": 4086,
      "blunt": 4087,
      "blank": 4088,
      "blanket": 4089,
      "trees": 4090,
      "cubicle": 4091,
      "blurred": 4092,
      "unique": 4093,
      "umbrellas": 4094,
      "uniforms": 4095,
      "mouthpiece": 4096,
      "sunken": 4097,
      "crinkled": 4098,
      "meaningful": 4099,
      "measuringcup": 4100,
      "hatbox": 4101,
      "vendors": 4102,
      "kiwifruit": 4103,
      "kiosk": 4104,
      "markets": 4105,
      "ports": 4106,
      "banners": 4107,
      "bottlecap": 4108,
      "stalls": 4109,
      "grouse": 4110,
      "gaz": 4111,
      "sedimentar": 4112,
      "award": 4113,
      "clothed": 4114,
      "clothes": 4115,
      "rows": 4116,
      "hairline": 4117,
      "ately": 4118,
      "bags": 4119,
      "binder": 4120,
      "eyelids": 4121,
      "eyebrow": 4122,
      "husks": 4123,
      "prairi": 4124,
      "tallized": 4125,
      "weighted": 4126,
      "deserts": 4127,
      "furniture": 4128,
      "phr": 4129,
      "shading": 4130,
      "vertical": 4131,
      "cauldron": 4132,
      "mane": 4133,
      "manner": 4134,
      "poncho": 4135,
      "colliding": 4136,
      "powerful": 4137,
      "supporter": 4138,
      "lionfish": 4139,
      "postcard": 4140,
      "billboard": 4141,
      "fertiliz": 4142,
      "gasoline": 4143,
      "smile": 4144,
      "tagline": 4145,
      "symmetric": 4146,
      "periodical": 4147,
      "emblem": 4148,
      "regulation": 4149,
      "engaging": 4150,
      "toolbar": 4151,
      "cello": 4152,
      "cells": 4153,
      "lights": 4154,
      "webcam": 4155,
      "dotted": 4156,
      "wagonwheel": 4157,
      "species": 4158,
      "snowman": 4159,
      "trackpad": 4160,
      "stuffed": 4161,
      "stuffing": 4162,
      "accessories": 4163,
      "folding": 4164,
      "motorboat": 4165,
      "graphics": 4166,
      "affectionate": 4167,
      "chalkboard": 4168,
      "toilettissue": 4169,
      "navigating": 4170,
      "navigation": 4171,
      "agave": 4172,
      "blended": 4173,
      "font": 4174,
      "jointed": 4175,
      "testicle": 4176,
      "assembly": 4177,
      "issue": 4178,
      "towards": 4179,
      "submarine": 4180,
      "located": 4181,
      "titles": 4182,
      "approachable": 4183,
      "partially": 4184,
      "trailer": 4185,
      "nipples": 4186,
      "helpful": 4187,
      "dispenser": 4188,
      "reflection": 4189,
      "Compos": 4190,
      "ERTY": 4191,
      "Handles": 4192,
      "QWERTY": 4193,
      "Wearing": 4194,
      "bamboo": 4195,
      "bait": 4196,
      "bristly": 4197,
      "closed": 4198,
      "camera": 4199,
      "dampness": 4200,
      "fizz": 4201,
      "framing": 4202,
      "girl": 4203,
      "jersey": 4204,
      "listed": 4205,
      "lodge": 4206,
      "mandarinorange": 4207,
      "mammal": 4208,
      "mastree": 4209,
      "nectarine": 4210,
      "rabbit": 4211,
      "school": 4212,
      "vapor": 4213,
      "warped": 4214,
      "zombie": 4215,
      "christmastree": 4216,
      "asymmetrical": 4217,
      "artwork": 4218,
      "recreational": 4219,
      "repeating": 4220,
      "receding": 4221,
      "tomorrow": 4222,
      "teardrop": 4223,
      "teacher": 4224,
      "teaspoon": 4225,
      "beaches": 4226,
      "adventure": 4227,
      "seaport": 4228,
      "carrying": 4229,
      "accurately": 4230,
      "crystallized": 4231,
      "mobile": 4232,
      "efficient": 4233,
      "foodprocessor": 4234,
      "appendage": 4235,
      "strands": 4236,
      "vitamins": 4237,
      "haystack": 4238,
      "geometric": 4239,
      "bridegroom": 4240,
      "whelk": 4241,
      "professional": 4242,
      "silhouette": 4243,
      "airplane": 4244,
      "swimming": 4245,
      "communication": 4246,
      "jewelry": 4247,
      "sedimentary": 4248,
      "prairie": 4249,
      "fertilizing": 4250,
      "periodicals": 4251,
      "Composition": 4252,
      ".,": 4253,
      "025": 4254,
      "10": 4255,
      "17": 4256,
      "100": 4257,
      "45": 4258,
      "Bar": 4259,
      "Bal": 4260,
      "Dry": 4261,
      "Ir": 4262,
      "NO": 4263,
      "Soft": 4264,
      "Ty": 4265,
      "Tag": 4266,
      "ax": 4267,
      "awn": 4268,
      "aut": 4269,
      "aqu": 4270,
      "afe": 4271,
      "ailed": 4272,
      "aging": 4273,
      "awning": 4274,
      "bing": 4275,
      "ben": 4276,
      "bat": 4277,
      "blad": 4278,
      "bund": 4279,
      "bare": 4280,
      "blos": 4281,
      "branch": 4282,
      "baro": 4283,
      "bend": 4284,
      "brace": 4285,
      "cri": 4286,
      "cli": 4287,
      "cents": 4288,
      "ccu": 4289,
      "clar": 4290,
      "cise": 4291,
      "cery": 4292,
      "climb": 4293,
      "clip": 4294,
      "dv": 4295,
      "dw": 4296,
      "dth": 4297,
      "dles": 4298,
      "dine": 4299,
      "em": 4300,
      "ech": 4301,
      "ema": 4302,
      "eli": 4303,
      "eld": 4304,
      "emon": 4305,
      "ebo": 4306,
      "embers": 4307,
      "eving": 4308,
      "ekeep": 4309,
      "fy": 4310,
      "fen": 4311,
      "fad": 4312,
      "fun": 4313,
      "fow": 4314,
      "fort": 4315,
      "flas": 4316,
      "flue": 4317,
      "fting": 4318,
      "fung": 4319,
      "fray": 4320,
      "gat": 4321,
      "gap": 4322,
      "gres": 4323,
      "gram": 4324,
      "gza": 4325,
      "gges": 4326,
      "gour": 4327,
      "gged": 4328,
      "glow": 4329,
      "gons": 4330,
      "hes": 4331,
      "hun": 4332,
      "hell": 4333,
      "horiz": 4334,
      "horn": 4335,
      "ita": 4336,
      "itive": 4337,
      "iature": 4338,
      "imper": 4339,
      "just": 4340,
      "jour": 4341,
      "kwa": 4342,
      "keros": 4343,
      "kid": 4344,
      "lk": 4345,
      "ler": 4346,
      "lan": 4347,
      "lou": 4348,
      "lur": 4349,
      "link": 4350,
      "lent": 4351,
      "ms": 4352,
      "mish": 4353,
      "mara": 4354,
      "mound": 4355,
      "mney": 4356,
      "nou": 4357,
      "nal": 4358,
      "nds": 4359,
      "nest": 4360,
      "oz": 4361,
      "oar": 4362,
      "ola": 4363,
      "oles": 4364,
      "ose": 4365,
      "ove": 4366,
      "oved": 4367,
      "oling": 4368,
      "pil": 4369,
      "pal": 4370,
      "plic": 4371,
      "pok": 4372,
      "pare": 4373,
      "pals": 4374,
      "rers": 4375,
      "rust": 4376,
      "rated": 4377,
      "rack": 4378,
      "rator": 4379,
      "raction": 4380,
      "sla": 4381,
      "sen": 4382,
      "scon": 4383,
      "sort": 4384,
      "scro": 4385,
      "slee": 4386,
      "som": 4387,
      "slime": 4388,
      "scent": 4389,
      "sconces": 4390,
      "sman": 4391,
      "scents": 4392,
      "slur": 4393,
      "tic": 4394,
      "twi": 4395,
      "tat": 4396,
      "tus": 4397,
      "troll": 4398,
      "tring": 4399,
      "tation": 4400,
      "ull": 4401,
      "ulic": 4402,
      "ups": 4403,
      "uver": 4404,
      "usel": 4405,
      "upper": 4406,
      "uched": 4407,
      "viz": 4408,
      "vasse": 4409,
      "wes": 4410,
      "win": 4411,
      "who": 4412,
      "wboy": 4413,
      "xi": 4414,
      "xion": 4415,
      "xtures": 4416,
      "xican": 4417,
      "xima": 4418,
      "xication": 4419,
      "ya": 4420,
      "yl": 4421,
      "yar": 4422,
      "yard": 4423,
      "youn": 4424,
      "yment": 4425,
      "year": 4426,
      "chand": 4427,
      "chap": 4428,
      "chang": 4429,
      "chments": 4430,
      "change": 4431,
      "chair": 4432,
      "hip": 4433,
      "ass": 4434,
      "ases": 4435,
      "orna": 4436,
      "ordin": 4437,
      "orets": 4438,
      "orders": 4439,
      "edboat": 4440,
      "estack": 4441,
      "isley": 4442,
      "istas": 4443,
      "isms": 4444,
      "insu": 4445,
      "inse": 4446,
      "inst": 4447,
      "insert": 4448,
      "inding": 4449,
      "ering": 4450,
      "erod": 4451,
      "erly": 4452,
      "erate": 4453,
      "ans": 4454,
      "aning": 4455,
      "anion": 4456,
      "analog": 4457,
      "annel": 4458,
      "arma": 4459,
      "archi": 4460,
      "arrange": 4461,
      "arches": 4462,
      "ony": 4463,
      "ontal": 4464,
      "thou": 4465,
      "thod": 4466,
      "thery": 4467,
      "rele": 4468,
      "retri": 4469,
      "recess": 4470,
      "record": 4471,
      "later": 4472,
      "lack": 4473,
      "laces": 4474,
      "lated": 4475,
      "lapping": 4476,
      "laugh": 4477,
      "road": 4478,
      "rotter": 4479,
      "roots": 4480,
      "eting": 4481,
      "etic": 4482,
      "ria": 4483,
      "rick": 4484,
      "rity": 4485,
      "ricles": 4486,
      "ricity": 4487,
      "ene": 4488,
      "envi": 4489,
      "entering": 4490,
      "toos": 4491,
      "towing": 4492,
      "towel": 4493,
      "touched": 4494,
      "satin": 4495,
      "safet": 4496,
      "sations": 4497,
      "saya": 4498,
      "como": 4499,
      "coins": 4500,
      "comic": 4501,
      "costu": 4502,
      "covers": 4503,
      "cooling": 4504,
      "cowboy": 4505,
      "coordin": 4506,
      "sure": 4507,
      "sumer": 4508,
      "succu": 4509,
      "sugges": 4510,
      "aming": 4511,
      "icles": 4512,
      "icature": 4513,
      "ications": 4514,
      "width": 4515,
      "teglass": 4516,
      "tecture": 4517,
      "mate": 4518,
      "males": 4519,
      "magn": 4520,
      "mature": 4521,
      "magaz": 4522,
      "ceased": 4523,
      "cat": 4524,
      "cali": 4525,
      "cape": 4526,
      "caves": 4527,
      "cation": 4528,
      "catch": 4529,
      "oured": 4530,
      "eground": 4531,
      "eglass": 4532,
      "shey": 4533,
      "shaw": 4534,
      "shoes": 4535,
      "cheering": 4536,
      "being": 4537,
      "been": 4538,
      "beha": 4539,
      "beaut": 4540,
      "beekeep": 4541,
      "lido": 4542,
      "little": 4543,
      "likes": 4544,
      "lifts": 4545,
      "ishments": 4546,
      "leisu": 4547,
      "leless": 4548,
      "lexion": 4549,
      "atches": 4550,
      "attrac": 4551,
      "atria": 4552,
      "mexican": 4553,
      "method": 4554,
      "ably": 4555,
      "abrup": 4556,
      "abbing": 4557,
      "above": 4558,
      "ady": 4559,
      "adver": 4560,
      "adient": 4561,
      "adjust": 4562,
      "adoles": 4563,
      "tertaste": 4564,
      "create": 4565,
      "crevasse": 4566,
      "unk": 4567,
      "unste": 4568,
      "unglazed": 4569,
      "unfolded": 4570,
      "units": 4571,
      "unia": 4572,
      "unble": 4573,
      "spap": 4574,
      "spac": 4575,
      "splas": 4576,
      "splin": 4577,
      "spine": 4578,
      "spore": 4579,
      "brochu": 4580,
      "sepals": 4581,
      "serrated": 4582,
      "apher": 4583,
      "tache": 4584,
      "tains": 4585,
      "taxi": 4586,
      "colander": 4587,
      "coloured": 4588,
      "creampitcher": 4589,
      "theater": 4590,
      "ils": 4591,
      "garment": 4592,
      "garden": 4593,
      "cars": 4594,
      "caring": 4595,
      "carroll": 4596,
      "carafe": 4597,
      "caricature": 4598,
      "ellers": 4599,
      "illust": 4600,
      "vegetation": 4601,
      "saucepan": 4602,
      "allel": 4603,
      "deli": 4604,
      "demon": 4605,
      "deceased": 4606,
      "arium": 4607,
      "sounds": 4608,
      "cracks": 4609,
      "brewed": 4610,
      "brewing": 4611,
      "veless": 4612,
      "utral": 4613,
      "rail": 4614,
      "raise": 4615,
      "raft": 4616,
      "rafting": 4617,
      "variably": 4618,
      "odle": 4619,
      "local": 4620,
      "lobed": 4621,
      "locate": 4622,
      "logram": 4623,
      "loose": 4624,
      "locomo": 4625,
      "foothi": 4626,
      "folk": 4627,
      "flag": 4628,
      "flames": 4629,
      "mples": 4630,
      "mpkin": 4631,
      "tum": 4632,
      "tux": 4633,
      "tual": 4634,
      "tuck": 4635,
      "unders": 4636,
      "ghtful": 4637,
      "hoste": 4638,
      "hologram": 4639,
      "pig": 4640,
      "piles": 4641,
      "piers": 4642,
      "pigs": 4643,
      "chip": 4644,
      "chime": 4645,
      "chimney": 4646,
      "moves": 4647,
      "movie": 4648,
      "movable": 4649,
      "effe": 4650,
      "effer": 4651,
      "peach": 4652,
      "tied": 4653,
      "ties": 4654,
      "tipped": 4655,
      "tific": 4656,
      "timis": 4657,
      "cuts": 4658,
      "cumul": 4659,
      "cummer": 4660,
      "cupant": 4661,
      "hershey": 4662,
      "chocolatey": 4663,
      "dim": 4664,
      "dial": 4665,
      "dimpled": 4666,
      "dimples": 4667,
      "nalia": 4668,
      "great": 4669,
      "frown": 4670,
      "concess": 4671,
      "configur": 4672,
      "concise": 4673,
      "consumer": 4674,
      "ibili": 4675,
      "musical": 4676,
      "mustache": 4677,
      "ducts": 4678,
      "duplic": 4679,
      "lume": 4680,
      "ctures": 4681,
      "appare": 4682,
      "applian": 4683,
      "hues": 4684,
      "oske": 4685,
      "fishbowl": 4686,
      "station": 4687,
      "strator": 4688,
      "stony": 4689,
      "stabbing": 4690,
      "dishwas": 4691,
      "lyric": 4692,
      "syrin": 4693,
      "pans": 4694,
      "viour": 4695,
      "domes": 4696,
      "pupil": 4697,
      "pumpkin": 4698,
      "rest": 4699,
      "desks": 4700,
      "descri": 4701,
      "carrousel": 4702,
      "visit": 4703,
      "mble": 4704,
      "mbling": 4705,
      "bony": 4706,
      "bonnet": 4707,
      "crown": 4708,
      "operate": 4709,
      "optimis": 4710,
      "pinky": 4711,
      "companion": 4712,
      "complexion": 4713,
      "areola": 4714,
      "grinding": 4715,
      "gradient": 4716,
      "entic": 4717,
      "oleum": 4718,
      "insign": 4719,
      "femin": 4720,
      "female": 4721,
      "steep": 4722,
      "very": 4723,
      "pose": 4724,
      "potter": 4725,
      "poodle": 4726,
      "vescen": 4727,
      "seashell": 4728,
      "scaleless": 4729,
      "capri": 4730,
      "scallion": 4731,
      "gravest": 4732,
      "boath": 4733,
      "boots": 4734,
      "pages": 4735,
      "paint": 4736,
      "payment": 4737,
      "paisley": 4738,
      "session": 4739,
      "drive": 4740,
      "driver": 4741,
      "drifts": 4742,
      "lets": 4743,
      "letters": 4744,
      "lettering": 4745,
      "cotton": 4746,
      "filter": 4747,
      "valves": 4748,
      "forni": 4749,
      "formed": 4750,
      "foreground": 4751,
      "occupant": 4752,
      "vacation": 4753,
      "grass": 4754,
      "grassy": 4755,
      "trim": 4756,
      "trivet": 4757,
      "vinyl": 4758,
      "ribbed": 4759,
      "felt": 4760,
      "paddles": 4761,
      "backpack": 4762,
      "park": 4763,
      "parts": 4764,
      "parapher": 4765,
      "parallel": 4766,
      "trough": 4767,
      "canned": 4768,
      "oons": 4769,
      "resemble": 4770,
      "berries": 4771,
      "darker": 4772,
      "sidebar": 4773,
      "briation": 4774,
      "centered": 4775,
      "brightness": 4776,
      "linen": 4777,
      "linoleum": 4778,
      "inned": 4779,
      "straws": 4780,
      "blade": 4781,
      "bunny": 4782,
      "minty": 4783,
      "miniature": 4784,
      "passen": 4785,
      "what": 4786,
      "dresses": 4787,
      "dressed": 4788,
      "props": 4789,
      "progres": 4790,
      "bikes": 4791,
      "florets": 4792,
      "flannel": 4793,
      "exoske": 4794,
      "turkey": 4795,
      "inebriation": 4796,
      "speech": 4797,
      "speedboat": 4798,
      "lating": 4799,
      "disc": 4800,
      "disk": 4801,
      "discolour": 4802,
      "discoloration": 4803,
      "console": 4804,
      "hinge": 4805,
      "better": 4806,
      "balloons": 4807,
      "baseball": 4808,
      "paperboard": 4809,
      "battery": 4810,
      "jagged": 4811,
      "allows": 4812,
      "consistent": 4813,
      "ronment": 4814,
      "milkcan": 4815,
      "multicolored": 4816,
      "ridge": 4817,
      "bud": 4818,
      "buds": 4819,
      "toothed": 4820,
      "textiles": 4821,
      "sire": 4822,
      "siding": 4823,
      "cirrus": 4824,
      "fume": 4825,
      "point": 4826,
      "nels": 4827,
      "neutral": 4828,
      "fluteglass": 4829,
      "certain": 4830,
      "ceremon": 4831,
      "certific": 4832,
      "baristas": 4833,
      "flotation": 4834,
      "lens": 4835,
      "varying": 4836,
      "produces": 4837,
      "beaker": 4838,
      "starfish": 4839,
      "scrap": 4840,
      "scratches": 4841,
      "tassels": 4842,
      "intoxication": 4843,
      "feeling": 4844,
      "overall": 4845,
      "overexposed": 4846,
      "overlapping": 4847,
      "stripe": 4848,
      "trays": 4849,
      "protection": 4850,
      "openings": 4851,
      "imeter": 4852,
      "patch": 4853,
      "bells": 4854,
      "belly": 4855,
      "bellishments": 4856,
      "article": 4857,
      "coming": 4858,
      "comments": 4859,
      "comfort": 4860,
      "compartment": 4861,
      "pressed": 4862,
      "leather": 4863,
      "leathery": 4864,
      "ski": 4865,
      "skir": 4866,
      "skull": 4867,
      "skinned": 4868,
      "slip": 4869,
      "sliding": 4870,
      "central": 4871,
      "venue": 4872,
      "ventila": 4873,
      "ority": 4874,
      "origin": 4875,
      "barbecues": 4876,
      "position": 4877,
      "positive": 4878,
      "possession": 4879,
      "bedrock": 4880,
      "walkwa": 4881,
      "possibili": 4882,
      "confectionery": 4883,
      "woody": 4884,
      "separation": 4885,
      "separates": 4886,
      "fitting": 4887,
      "fixtures": 4888,
      "hairy": 4889,
      "outlook": 4890,
      "jeans": 4891,
      "regions": 4892,
      "ites": 4893,
      "itted": 4894,
      "seals": 4895,
      "regularly": 4896,
      "stout": 4897,
      "heater": 4898,
      "generated": 4899,
      "dividers": 4900,
      "aftertaste": 4901,
      "metals": 4902,
      "otape": 4903,
      "structures": 4904,
      "attachments": 4905,
      "countertop": 4906,
      "headlight": 4907,
      "necktie": 4908,
      "necklaces": 4909,
      "corner": 4910,
      "medal": 4911,
      "medications": 4912,
      "elastic": 4913,
      "footwear": 4914,
      "footprin": 4915,
      "outdoors": 4916,
      "helmet": 4917,
      "owns": 4918,
      "stems": 4919,
      "prevent": 4920,
      "placement": 4921,
      "istic": 4922,
      "shelf": 4923,
      "mented": 4924,
      "preserver": 4925,
      "preservers": 4926,
      "labeled": 4927,
      "grille": 4928,
      "earrings": 4929,
      "measures": 4930,
      "preparing": 4931,
      "closure": 4932,
      "trash": 4933,
      "trunk": 4934,
      "underexposed": 4935,
      "ticket": 4936,
      "worked": 4937,
      "left": 4938,
      "evening": 4939,
      "dense": 4940,
      "statement": 4941,
      "photograph": 4942,
      "candycane": 4943,
      "sheets": 4944,
      "handwriting": 4945,
      "cleaning": 4946,
      "formats": 4947,
      "lower": 4948,
      "formations": 4949,
      "cubicles": 4950,
      "occasions": 4951,
      "confetti": 4952,
      "dinette": 4953,
      "perfume": 4954,
      "perimeter": 4955,
      "fabrics": 4956,
      "clearly": 4957,
      "office": 4958,
      "beercan": 4959,
      "sticking": 4960,
      "dorsal": 4961,
      "prongs": 4962,
      "mediums": 4963,
      "zigza": 4964,
      "aprons": 4965,
      "slots": 4966,
      "sloped": 4967,
      "blot": 4968,
      "blood": 4969,
      "blotch": 4970,
      "winebucket": 4971,
      "spirals": 4972,
      "stored": 4973,
      "storage": 4974,
      "stories": 4975,
      "clawed": 4976,
      "grooves": 4977,
      "grocery": 4978,
      "grooved": 4979,
      "brands": 4980,
      "noise": 4981,
      "stirrers": 4982,
      "planet": 4983,
      "plants": 4984,
      "ventricles": 4985,
      "tising": 4986,
      "hairs": 4987,
      "hairless": 4988,
      "hairstyles": 4989,
      "pockets": 4990,
      "granulated": 4991,
      "windchime": 4992,
      "talking": 4993,
      "mesh": 4994,
      "drawn": 4995,
      "dragons": 4996,
      "draulic": 4997,
      "virtual": 4998,
      "keycard": 4999,
      "cabinet": 5000,
      "smokestack": 5001,
      "grape": 5002,
      "gift": 5003,
      "bustling": 5004,
      "network": 5005,
      "intersection": 5006,
      "stratus": 5007,
      "furrows": 5008,
      "pharma": 5009,
      "petunia": 5010,
      "inesses": 5011,
      "streaked": 5012,
      "streaming": 5013,
      "landforms": 5014,
      "manger": 5015,
      "wording": 5016,
      "kernels": 5017,
      "segments": 5018,
      "segmented": 5019,
      "powered": 5020,
      "16oz": 5021,
      "electricity": 5022,
      "flip": 5023,
      "supply": 5024,
      "bearing": 5025,
      "symbols": 5026,
      "fireplace": 5027,
      "clusters": 5028,
      "busy": 5029,
      "businesses": 5030,
      "nub": 5031,
      "wrinkles": 5032,
      "gaslight": 5033,
      "horses": 5034,
      "stumbling": 5035,
      "button": 5036,
      "honeycombed": 5037,
      "extends": 5038,
      "newspap": 5039,
      "detect": 5040,
      "detailed": 5041,
      "drainage": 5042,
      "family": 5043,
      "knot": 5044,
      "knitted": 5045,
      "nonpare": 5046,
      "pinecone": 5047,
      "instruments": 5048,
      "sails": 5049,
      "cellphone": 5050,
      "memorable": 5051,
      "matches": 5052,
      "authentic": 5053,
      "authority": 5054,
      "cloud": 5055,
      "phonebook": 5056,
      "businesscard": 5057,
      "refraction": 5058,
      "removal": 5059,
      "lifeboats": 5060,
      "albumen": 5061,
      "folder": 5062,
      "welcoming": 5063,
      "websites": 5064,
      "motors": 5065,
      "motorbikes": 5066,
      "systems": 5067,
      "questioning": 5068,
      "identify": 5069,
      "characteristic": 5070,
      "country": 5071,
      "trumpeting": 5072,
      "giantpanda": 5073,
      "against": 5074,
      "blending": 5075,
      "fonts": 5076,
      "groomsman": 5077,
      "joint": 5078,
      "issued": 5079,
      "rosebud": 5080,
      "towers": 5081,
      "subtle": 5082,
      "teammate": 5083,
      "makeup": 5084,
      "location": 5085,
      "approxima": 5086,
      "video": 5087,
      "videos": 5088,
      "videotape": 5089,
      "teddybear": 5090,
      "partition": 5091,
      "baldness": 5092,
      "trafficlight": 5093,
      "filecabinet": 5094,
      "stocky": 5095,
      "nipple": 5096,
      "dispensing": 5097,
      "collecting": 5098,
      "numbered": 5099,
      "reflections": 5100,
      "005": 5101,
      "aisle": 5102,
      "aisles": 5103,
      "hydraulic": 5104,
      "jackfruit": 5105,
      "jackets": 5106,
      "mounted": 5107,
      "mountains": 5108,
      "notation": 5109,
      "notepad": 5110,
      "notebook": 5111,
      "playground": 5112,
      "playful": 5113,
      "pongball": 5114,
      "rinds": 5115,
      "sensor": 5116,
      "sensory": 5117,
      "voice": 5118,
      "volume": 5119,
      "youthful": 5120,
      "chain": 5121,
      "chains": 5122,
      "related": 5123,
      "relaxed": 5124,
      "roofline": 5125,
      "cables": 5126,
      "shoe": 5127,
      "shopping": 5128,
      "spores": 5129,
      "sports": 5130,
      "sparkling": 5131,
      "sparkler": 5132,
      "securely": 5133,
      "security": 5134,
      "homeplate": 5135,
      "hoods": 5136,
      "pipebowl": 5137,
      "direction": 5138,
      "directory": 5139,
      "convertible": 5140,
      "conversations": 5141,
      "musician": 5142,
      "hubcap": 5143,
      "crossbones": 5144,
      "crossword": 5145,
      "wheeled": 5146,
      "wheels": 5147,
      "masterwort": 5148,
      "exciting": 5149,
      "excitement": 5150,
      "pencilbox": 5151,
      "barbershop": 5152,
      "flooring": 5153,
      "indentation": 5154,
      "indentations": 5155,
      "tracking": 5156,
      "blankets": 5157,
      "gazebo": 5158,
      "clothespin": 5159,
      "phrase": 5160,
      "phrases": 5161,
      "maneuver": 5162,
      "mannerisms": 5163,
      "trailertruck": 5164,
      "458": 5165,
      "Barong": 5166,
      "Balding": 5167,
      "Irregularly": 5168,
      "NOM": 5169,
      "Typically": 5170,
      "Tagalog": 5171,
      "awnings": 5172,
      "aquarium": 5173,
      "benches": 5174,
      "blades": 5175,
      "blossom": 5176,
      "branches": 5177,
      "bendable": 5178,
      "bracelets": 5179,
      "client": 5180,
      "clark": 5181,
      "climbing": 5182,
      "clipboard": 5183,
      "dvd": 5184,
      "dwellers": 5185,
      "embellishments": 5186,
      "email": 5187,
      "eliers": 5188,
      "elderly": 5189,
      "fence": 5190,
      "fading": 5191,
      "funnel": 5192,
      "fowl": 5193,
      "flashy": 5194,
      "fungus": 5195,
      "frayed": 5196,
      "gourd": 5197,
      "glowing": 5198,
      "hunting": 5199,
      "horizontal": 5200,
      "italia": 5201,
      "imperfection": 5202,
      "journal": 5203,
      "kerosene": 5204,
      "lantern": 5205,
      "loud": 5206,
      "links": 5207,
      "mished": 5208,
      "maraca": 5209,
      "nougat": 5210,
      "oars": 5211,
      "palette": 5212,
      "poke": 5213,
      "rustic": 5214,
      "sconce": 5215,
      "sorting": 5216,
      "scrotum": 5217,
      "sleeveless": 5218,
      "slurred": 5219,
      "ticass": 5220,
      "twigs": 5221,
      "tattoos": 5222,
      "tusk": 5223,
      "trolley": 5224,
      "upside": 5225,
      "vizsla": 5226,
      "western": 5227,
      "wineglass": 5228,
      "yarn": 5229,
      "young": 5230,
      "chandeliers": 5231,
      "changing": 5232,
      "ornately": 5233,
      "insulating": 5234,
      "insect": 5235,
      "eroded": 5236,
      "architecture": 5237,
      "arrangement": 5238,
      "thoughtful": 5239,
      "release": 5240,
      "retrieving": 5241,
      "recessed": 5242,
      "recordplayer": 5243,
      "lateral": 5244,
      "laughter": 5245,
      "rickshaw": 5246,
      "environment": 5247,
      "safety": 5248,
      "comicbook": 5249,
      "costume": 5250,
      "coordinated": 5251,
      "succulent": 5252,
      "suggesting": 5253,
      "magnetic": 5254,
      "magazines": 5255,
      "californi": 5256,
      "catching": 5257,
      "shoestring": 5258,
      "behaviour": 5259,
      "beauty": 5260,
      "beekeeper": 5261,
      "leisurely": 5262,
      "attractive": 5263,
      "abrupt": 5264,
      "advertising": 5265,
      "adolescent": 5266,
      "unsteady": 5267,
      "unblemished": 5268,
      "spaces": 5269,
      "splashes": 5270,
      "splinters": 5271,
      "brochure": 5272,
      "illustration": 5273,
      "demonstrator": 5274,
      "locomotive": 5275,
      "foothill": 5276,
      "undersole": 5277,
      "hostel": 5278,
      "effect": 5279,
      "effervescen": 5280,
      "cumulus": 5281,
      "cummerbund": 5282,
      "concessions": 5283,
      "configuration": 5284,
      "duplicate": 5285,
      "apparel": 5286,
      "appliance": 5287,
      "dishwasher": 5288,
      "syrinx": 5289,
      "domesticass": 5290,
      "description": 5291,
      "visitor": 5292,
      "optimism": 5293,
      "insignia": 5294,
      "feminine": 5295,
      "gravestone": 5296,
      "boathouse": 5297,
      "paintings": 5298,
      "vacationer": 5299,
      "backpacker": 5300,
      "paraphernalia": 5301,
      "passenger": 5302,
      "progress": 5303,
      "exoskeleton": 5304,
      "discolouration": 5305,
      "ceremonial": 5306,
      "certificate": 5307,
      "comfortable": 5308,
      "skirts": 5309,
      "ventilation": 5310,
      "original": 5311,
      "walkway": 5312,
      "possibility": 5313,
      "footprint": 5314,
      "trashcan": 5315,
      "zigzags": 5316,
      "blotchy": 5317,
      "pharmacy": 5318,
      "newspapers": 5319,
      "nonpareils": 5320,
      "identifying": 5321,
      "approximately": 5322,
      "maneuvering": 5323,
      "journalist": 5324,
      "thoughtfulness": 5325,
      "california": 5326,
      "effervescence": 5327
    },
    "merges": [
      [
        "c",
        "h"
      ],
      [
        "h",
        "i"
      ],
      [
        "w",
        "hi"
      ],
      [
        "whi",
        "ch"
      ],
      [
        "a",
        "s"
      ],
      [
        "h",
        "as"
      ],
      [
        "o",
        "r"
      ],
      [
        "e",
        "d"
      ],
      [
        "e",
        "s"
      ],
      [
        "i",
        "s"
      ],
      [
        "i",
        "n"
      ],
      [
        "e",
        "r"
      ],
      [
        "a",
        "n"
      ],
      [
        "a",
        "r"
      ],
      [
        "o",
        "n"
      ],
      [
        "t",
        "h"
      ],
      [
        "l",
        "l"
      ],
      [
        "r",
        "e"
      ],
      [
        "l",
        "a"
      ],
      [
        "r",
        "o"
      ],
      [
        "e",
        "t"
      ],
      [
        "o",
        "f"
      ],
      [
        "an",
        "d"
      ],
      [
        "in",
        "g"
      ],
      [
        "r",
        "i"
      ],
      [
        "e",
        "n"
      ],
      [
        "t",
        "o"
      ],
      [
        "s",
        "a"
      ],
      [
        "c",
        "o"
      ],
      [
        "s",
        "u"
      ],
      [
        "a",
        "m"
      ],
      [
        "i",
        "c"
      ],
      [
        "w",
        "i"
      ],
      [
        "t",
        "e"
      ],
      [
        "m",
        "a"
      ],
      [
        "c",
        "e"
      ],
      [
        "c",
        "a"
      ],
      [
        "o",
        "u"
      ],
      [
        "t",
        "s"
      ],
      [
        "wi",
        "th"
      ],
      [
        "p",
        "p"
      ],
      [
        "e",
        "g"
      ],
      [
        "es",
        "e"
      ],
      [
        "s",
        "h"
      ],
      [
        "ch",
        "e"
      ],
      [
        "b",
        "e"
      ],
      [
        "l",
        "i"
      ],
      [
        "is",
        "h"
      ],
      [
        "l",
        "e"
      ],
      [
        "a",
        "t"
      ],
      [
        "m",
        "e"
      ],
      [
        "su",
        "ch"
      ],
      [
        "che",
        "ese"
      ],
      [
        "l",
        "es"
      ],
      [
        "a",
        "b"
      ],
      [
        "a",
        "d"
      ],
      [
        "t",
        "er"
      ],
      [
        "c",
        "re"
      ],
      [
        "u",
        "n"
      ],
      [
        "s",
        "p"
      ],
      [
        "b",
        "ro"
      ],
      [
        "i",
        "on"
      ],
      [
        "ca",
        "k"
      ],
      [
        "s",
        "e"
      ],
      [
        "g",
        "h"
      ],
      [
        "s",
        "er"
      ],
      [
        "a",
        "p"
      ],
      [
        "o",
        "w"
      ],
      [
        "sa",
        "u"
      ],
      [
        "o",
        "th"
      ],
      [
        "ing",
        "s"
      ],
      [
        "t",
        "a"
      ],
      [
        "co",
        "l"
      ],
      [
        "cre",
        "am"
      ],
      [
        "th",
        "e"
      ],
      [
        "i",
        "l"
      ],
      [
        "g",
        "ar"
      ],
      [
        "b",
        "s"
      ],
      [
        "col",
        "or"
      ],
      [
        "c",
        "ar"
      ],
      [
        "e",
        "ll"
      ],
      [
        "i",
        "ll"
      ],
      [
        "u",
        "s"
      ],
      [
        "w",
        "n"
      ],
      [
        "bro",
        "wn"
      ],
      [
        "ser",
        "v"
      ],
      [
        "u",
        "r"
      ],
      [
        "v",
        "eg"
      ],
      [
        "veg",
        "et"
      ],
      [
        "veget",
        "ab"
      ],
      [
        "vegetab",
        "les"
      ],
      [
        "a",
        "c"
      ],
      [
        "sau",
        "ce"
      ],
      [
        "cak",
        "e"
      ],
      [
        "ch",
        "o"
      ],
      [
        "a",
        "ll"
      ],
      [
        "la",
        "te"
      ],
      [
        "f",
        "ri"
      ],
      [
        "d",
        "e"
      ],
      [
        "sh",
        "ap"
      ],
      [
        "ar",
        "i"
      ],
      [
        "s",
        "ou"
      ],
      [
        "serv",
        "ed"
      ],
      [
        "a",
        "l"
      ],
      [
        "c",
        "r"
      ],
      [
        "to",
        "pp"
      ],
      [
        "oth",
        "er"
      ],
      [
        "b",
        "re"
      ],
      [
        "r",
        "ed"
      ],
      [
        "v",
        "e"
      ],
      [
        "t",
        "ar"
      ],
      [
        "all",
        "y"
      ],
      [
        "ma",
        "y"
      ],
      [
        "l",
        "ic"
      ],
      [
        "on",
        "ion"
      ],
      [
        "u",
        "t"
      ],
      [
        "r",
        "a"
      ],
      [
        "v",
        "ari"
      ],
      [
        "la",
        "d"
      ],
      [
        "o",
        "d"
      ],
      [
        "l",
        "o"
      ],
      [
        "g",
        "n"
      ],
      [
        "f",
        "o"
      ],
      [
        "as",
        "t"
      ],
      [
        "sa",
        "lad"
      ],
      [
        "f",
        "ill"
      ],
      [
        "ic",
        "k"
      ],
      [
        "f",
        "la"
      ],
      [
        "m",
        "p"
      ],
      [
        "bre",
        "ad"
      ],
      [
        "eg",
        "g"
      ],
      [
        "t",
        "u"
      ],
      [
        "un",
        "d"
      ],
      [
        "s",
        "and"
      ],
      [
        "ro",
        "und"
      ],
      [
        "gh",
        "t"
      ],
      [
        "wi",
        "ch"
      ],
      [
        "sand",
        "wich"
      ],
      [
        "q",
        "u"
      ],
      [
        "an",
        "g"
      ],
      [
        "w",
        "e"
      ],
      [
        "u",
        "su"
      ],
      [
        "usu",
        "ally"
      ],
      [
        "h",
        "o"
      ],
      [
        "en",
        "ts"
      ],
      [
        "cream",
        "y"
      ],
      [
        "shap",
        "e"
      ],
      [
        "p",
        "i"
      ],
      [
        "fri",
        "ed"
      ],
      [
        "a",
        "k"
      ],
      [
        "in",
        "k"
      ],
      [
        "m",
        "i"
      ],
      [
        "ch",
        "i"
      ],
      [
        "am",
        "e"
      ],
      [
        "sou",
        "p"
      ],
      [
        "m",
        "o"
      ],
      [
        "r",
        "u"
      ],
      [
        "n",
        "ish"
      ],
      [
        "gar",
        "nish"
      ],
      [
        "me",
        "at"
      ],
      [
        "tu",
        "re"
      ],
      [
        "x",
        "ture"
      ],
      [
        "g",
        "o"
      ],
      [
        "e",
        "f"
      ],
      [
        "be",
        "ef"
      ],
      [
        "o",
        "li"
      ],
      [
        "er",
        "s"
      ],
      [
        "p",
        "e"
      ],
      [
        "fo",
        "od"
      ],
      [
        "t",
        "i"
      ],
      [
        "t",
        "hi"
      ],
      [
        "vari",
        "et"
      ],
      [
        "f",
        "re"
      ],
      [
        "ch",
        "ick"
      ],
      [
        "li",
        "ght"
      ],
      [
        "y",
        "ell"
      ],
      [
        "yell",
        "ow"
      ],
      [
        "g",
        "ri"
      ],
      [
        "p",
        "s"
      ],
      [
        "variet",
        "y"
      ],
      [
        "chick",
        "en"
      ],
      [
        "s",
        "lic"
      ],
      [
        "te",
        "xture"
      ],
      [
        "c",
        "u"
      ],
      [
        "n",
        "ch"
      ],
      [
        "h",
        "er"
      ],
      [
        "her",
        "bs"
      ],
      [
        "to",
        "p"
      ],
      [
        "v",
        "or"
      ],
      [
        "fre",
        "nch"
      ],
      [
        "f",
        "a"
      ],
      [
        "l",
        "d"
      ],
      [
        "co",
        "late"
      ],
      [
        "cho",
        "colate"
      ],
      [
        "d",
        "i"
      ],
      [
        "n",
        "a"
      ],
      [
        "o",
        "y"
      ],
      [
        "la",
        "y"
      ],
      [
        "r",
        "y"
      ],
      [
        "p",
        "late"
      ],
      [
        "g",
        "re"
      ],
      [
        "whi",
        "te"
      ],
      [
        "se",
        "a"
      ],
      [
        "u",
        "ts"
      ],
      [
        "f",
        "ro"
      ],
      [
        "c",
        "on"
      ],
      [
        "i",
        "b"
      ],
      [
        "c",
        "k"
      ],
      [
        "ll",
        "ed"
      ],
      [
        "or",
        "k"
      ],
      [
        "l",
        "ar"
      ],
      [
        "topp",
        "ed"
      ],
      [
        "egg",
        "s"
      ],
      [
        "thi",
        "n"
      ],
      [
        "m",
        "us"
      ],
      [
        "c",
        "es"
      ],
      [
        "pi",
        "e"
      ],
      [
        "ri",
        "ce"
      ],
      [
        "d",
        "u"
      ],
      [
        "o",
        "il"
      ],
      [
        "go",
        "ld"
      ],
      [
        "ma",
        "ll"
      ],
      [
        "gold",
        "en"
      ],
      [
        "l",
        "u"
      ],
      [
        "s",
        "mall"
      ],
      [
        "of",
        "t"
      ],
      [
        "c",
        "t"
      ],
      [
        "sa",
        "l"
      ],
      [
        "i",
        "z"
      ],
      [
        "a",
        "pp"
      ],
      [
        "fill",
        "ed"
      ],
      [
        "slic",
        "es"
      ],
      [
        "ho",
        "t"
      ],
      [
        "p",
        "ork"
      ],
      [
        "ou",
        "s"
      ],
      [
        "b",
        "as"
      ],
      [
        "su",
        "r"
      ],
      [
        "r",
        "ink"
      ],
      [
        "ing",
        "red"
      ],
      [
        "ingred",
        "i"
      ],
      [
        "ingredi",
        "ents"
      ],
      [
        "h",
        "u"
      ],
      [
        "o",
        "s"
      ],
      [
        "s",
        "we"
      ],
      [
        "swe",
        "et"
      ],
      [
        "o",
        "k"
      ],
      [
        "f",
        "ish"
      ],
      [
        "s",
        "t"
      ],
      [
        "fla",
        "vor"
      ],
      [
        "d",
        "ish"
      ],
      [
        "to",
        "ast"
      ],
      [
        "me",
        "l"
      ],
      [
        "l",
        "y"
      ],
      [
        "ro",
        "ll"
      ],
      [
        "s",
        "y"
      ],
      [
        "d",
        "er"
      ],
      [
        "y",
        "o"
      ],
      [
        "bs",
        "ter"
      ],
      [
        "lo",
        "bster"
      ],
      [
        "chi",
        "ps"
      ],
      [
        "sp",
        "ic"
      ],
      [
        "t",
        "y"
      ],
      [
        "p",
        "an"
      ],
      [
        "m",
        "on"
      ],
      [
        "la",
        "m"
      ],
      [
        "fa",
        "ce"
      ],
      [
        "sur",
        "face"
      ],
      [
        "topp",
        "ings"
      ],
      [
        "lay",
        "er"
      ],
      [
        "onion",
        "s"
      ],
      [
        "sou",
        "r"
      ],
      [
        "v",
        "i"
      ],
      [
        "co",
        "ok"
      ],
      [
        "u",
        "lar"
      ],
      [
        "cak",
        "es"
      ],
      [
        "d",
        "o"
      ],
      [
        "k",
        "s"
      ],
      [
        "to",
        "ma"
      ],
      [
        "toma",
        "to"
      ],
      [
        "l",
        "ed"
      ],
      [
        "m",
        "ents"
      ],
      [
        "h",
        "a"
      ],
      [
        "b",
        "ur"
      ],
      [
        "sh",
        "ell"
      ],
      [
        "p",
        "u"
      ],
      [
        "ma",
        "car"
      ],
      [
        "ow",
        "der"
      ],
      [
        "tar",
        "tar"
      ],
      [
        "f",
        "f"
      ],
      [
        "r",
        "es"
      ],
      [
        "gar",
        "lic"
      ],
      [
        "fri",
        "es"
      ],
      [
        "d",
        "es"
      ],
      [
        "ang",
        "ular"
      ],
      [
        "car",
        "ro"
      ],
      [
        "c",
        "i"
      ],
      [
        "i",
        "de"
      ],
      [
        "sp",
        "rink"
      ],
      [
        "n",
        "uts"
      ],
      [
        "sp",
        "a"
      ],
      [
        "et",
        "ti"
      ],
      [
        "gh",
        "etti"
      ],
      [
        "spa",
        "ghetti"
      ],
      [
        "b",
        "ac"
      ],
      [
        "ra",
        "w"
      ],
      [
        "v",
        "is"
      ],
      [
        "ha",
        "ve"
      ],
      [
        "spic",
        "es"
      ],
      [
        "cook",
        "ed"
      ],
      [
        "qu",
        "e"
      ],
      [
        "c",
        "an"
      ],
      [
        "g",
        "e"
      ],
      [
        "ou",
        "gh"
      ],
      [
        "d",
        "ough"
      ],
      [
        "pe",
        "pp"
      ],
      [
        "ib",
        "le"
      ],
      [
        "s",
        "mo"
      ],
      [
        "m",
        "b"
      ],
      [
        "b",
        "ow"
      ],
      [
        "r",
        "am"
      ],
      [
        "k",
        "e"
      ],
      [
        "ru",
        "i"
      ],
      [
        "f",
        "rui"
      ],
      [
        "is",
        "o"
      ],
      [
        "tartar",
        "e"
      ],
      [
        "smo",
        "oth"
      ],
      [
        "bow",
        "l"
      ],
      [
        "gri",
        "lled"
      ],
      [
        "or",
        "t"
      ],
      [
        "b",
        "on"
      ],
      [
        "b",
        "ut"
      ],
      [
        "c",
        "ur"
      ],
      [
        "ang",
        "e"
      ],
      [
        "ill",
        "a"
      ],
      [
        "c",
        "ro"
      ],
      [
        "t",
        "ed"
      ],
      [
        "o",
        "p"
      ],
      [
        "p",
        "ink"
      ],
      [
        "co",
        "mp"
      ],
      [
        "ar",
        "e"
      ],
      [
        "we",
        "ed"
      ],
      [
        "sea",
        "weed"
      ],
      [
        "be",
        "an"
      ],
      [
        "but",
        "ter"
      ],
      [
        "gre",
        "en"
      ],
      [
        "on",
        "g"
      ],
      [
        "oft",
        "en"
      ],
      [
        "li",
        "ke"
      ],
      [
        "is",
        "e"
      ],
      [
        "d",
        "d"
      ],
      [
        "z",
        "a"
      ],
      [
        "vari",
        "ous"
      ],
      [
        "vis",
        "ible"
      ],
      [
        "a",
        "i"
      ],
      [
        "or",
        "ange"
      ],
      [
        "fla",
        "t"
      ],
      [
        "et",
        "iz"
      ],
      [
        "app",
        "etiz"
      ],
      [
        "fill",
        "ing"
      ],
      [
        "g",
        "r"
      ],
      [
        "pp",
        "ed"
      ],
      [
        "us",
        "t"
      ],
      [
        "macar",
        "on"
      ],
      [
        "su",
        "gar"
      ],
      [
        "is",
        "p"
      ],
      [
        "en",
        "t"
      ],
      [
        "cu",
        "p"
      ],
      [
        "ri",
        "mp"
      ],
      [
        "o",
        "le"
      ],
      [
        "in",
        "s"
      ],
      [
        "ell",
        "a"
      ],
      [
        "g",
        "u"
      ],
      [
        "g",
        "es"
      ],
      [
        "cr",
        "isp"
      ],
      [
        "f",
        "e"
      ],
      [
        "ser",
        "t"
      ],
      [
        "des",
        "sert"
      ],
      [
        "s",
        "te"
      ],
      [
        "ic",
        "e"
      ],
      [
        "v",
        "er"
      ],
      [
        "am",
        "ole"
      ],
      [
        "ac",
        "amole"
      ],
      [
        "gu",
        "acamole"
      ],
      [
        "p",
        "o"
      ],
      [
        "v",
        "es"
      ],
      [
        "p",
        "ast"
      ],
      [
        "i",
        "gn"
      ],
      [
        "pie",
        "ces"
      ],
      [
        "ar",
        "m"
      ],
      [
        "t",
        "w"
      ],
      [
        "c",
        "lu"
      ],
      [
        "oli",
        "ve"
      ],
      [
        "mp",
        "l"
      ],
      [
        "du",
        "mpl"
      ],
      [
        "sh",
        "rimp"
      ],
      [
        "lo",
        "s"
      ],
      [
        "g",
        "los"
      ],
      [
        "glos",
        "sy"
      ],
      [
        "c",
        "ut"
      ],
      [
        "sea",
        "food"
      ],
      [
        "se",
        "as"
      ],
      [
        "seas",
        "on"
      ],
      [
        "s",
        "ca"
      ],
      [
        "re",
        "ct"
      ],
      [
        "ca",
        "p"
      ],
      [
        "sca",
        "ll"
      ],
      [
        "t",
        "ion"
      ],
      [
        "z",
        "en"
      ],
      [
        "fro",
        "zen"
      ],
      [
        "c",
        "or"
      ],
      [
        "mel",
        "ted"
      ],
      [
        "b",
        "ak"
      ],
      [
        "past",
        "ry"
      ],
      [
        "g",
        "ra"
      ],
      [
        "ch",
        "un"
      ],
      [
        "t",
        "in"
      ],
      [
        "s",
        "hi"
      ],
      [
        "b",
        "o"
      ],
      [
        "s",
        "qu"
      ],
      [
        "an",
        "i"
      ],
      [
        "ac",
        "comp"
      ],
      [
        "accomp",
        "ani"
      ],
      [
        "p",
        "ick"
      ],
      [
        "r",
        "ings"
      ],
      [
        "v",
        "et"
      ],
      [
        "l",
        "vet"
      ],
      [
        "ve",
        "lvet"
      ],
      [
        "chun",
        "ks"
      ],
      [
        "i",
        "e"
      ],
      [
        "mi",
        "x"
      ],
      [
        "rect",
        "angular"
      ],
      [
        "s",
        "oy"
      ],
      [
        "g",
        "ur"
      ],
      [
        "bas",
        "ed"
      ],
      [
        "dumpl",
        "ings"
      ],
      [
        "yo",
        "gur"
      ],
      [
        "yogur",
        "t"
      ],
      [
        "carro",
        "ts"
      ],
      [
        "b",
        "is"
      ],
      [
        "ed",
        "s"
      ],
      [
        "se",
        "eds"
      ],
      [
        "gri",
        "ts"
      ],
      [
        "w",
        "a"
      ],
      [
        "p",
        "a"
      ],
      [
        "hu",
        "e"
      ],
      [
        "s",
        "es"
      ],
      [
        "cr",
        "ab"
      ],
      [
        "ed",
        "ges"
      ],
      [
        "tw",
        "o"
      ],
      [
        "ses",
        "ame"
      ],
      [
        "d",
        "ri"
      ],
      [
        "sau",
        "ces"
      ],
      [
        "l",
        "et"
      ],
      [
        "tomato",
        "es"
      ],
      [
        "co",
        "t"
      ],
      [
        "cot",
        "ta"
      ],
      [
        "frui",
        "ts"
      ],
      [
        "tion",
        "al"
      ],
      [
        "t",
        "to"
      ],
      [
        "car",
        "p"
      ],
      [
        "na",
        "cho"
      ],
      [
        "f",
        "at"
      ],
      [
        "bro",
        "th"
      ],
      [
        "cho",
        "p"
      ],
      [
        "sal",
        "mon"
      ],
      [
        "l",
        "as"
      ],
      [
        "le",
        "e"
      ],
      [
        "b",
        "ru"
      ],
      [
        "cre",
        "me"
      ],
      [
        "bru",
        "lee"
      ],
      [
        "f",
        "il"
      ],
      [
        "tar",
        "d"
      ],
      [
        "v",
        "al"
      ],
      [
        "be",
        "ign"
      ],
      [
        "beign",
        "et"
      ],
      [
        "f",
        "ast"
      ],
      [
        "bre",
        "ak"
      ],
      [
        "break",
        "fast"
      ],
      [
        "f",
        "or"
      ],
      [
        "c",
        "lam"
      ],
      [
        "hu",
        "m"
      ],
      [
        "macaron",
        "i"
      ],
      [
        "hum",
        "mus"
      ],
      [
        "appetiz",
        "er"
      ],
      [
        "o",
        "c"
      ],
      [
        "pepp",
        "ers"
      ],
      [
        "p",
        "owder"
      ],
      [
        "qu",
        "es"
      ],
      [
        "ad",
        "illa"
      ],
      [
        "ques",
        "adilla"
      ],
      [
        "ri",
        "bs"
      ],
      [
        "ri",
        "to"
      ],
      [
        "bur",
        "rito"
      ],
      [
        "m",
        "u"
      ],
      [
        "squ",
        "are"
      ],
      [
        "ar",
        "a"
      ],
      [
        "l",
        "ong"
      ],
      [
        "bean",
        "s"
      ],
      [
        "car",
        "bon"
      ],
      [
        "v",
        "a"
      ],
      [
        "carbon",
        "ara"
      ],
      [
        "shap",
        "ed"
      ],
      [
        "o",
        "od"
      ],
      [
        "b",
        "ib"
      ],
      [
        "i",
        "mb"
      ],
      [
        "bib",
        "imb"
      ],
      [
        "bibimb",
        "ap"
      ],
      [
        "at",
        "ed"
      ],
      [
        "sal",
        "sa"
      ],
      [
        "se",
        "l"
      ],
      [
        "mus",
        "sel"
      ],
      [
        "gr",
        "as"
      ],
      [
        "fo",
        "ie"
      ],
      [
        "r",
        "us"
      ],
      [
        "topp",
        "ing"
      ],
      [
        "f",
        "res"
      ],
      [
        "sa",
        "vor"
      ],
      [
        "fres",
        "h"
      ],
      [
        "savor",
        "y"
      ],
      [
        "o",
        "mel"
      ],
      [
        "omel",
        "et"
      ],
      [
        "cr",
        "ust"
      ],
      [
        "gn",
        "on"
      ],
      [
        "mi",
        "gnon"
      ],
      [
        "fil",
        "et"
      ],
      [
        "w",
        "ings"
      ],
      [
        "s",
        "oft"
      ],
      [
        "pu",
        "lled"
      ],
      [
        "d",
        "ic"
      ],
      [
        "ed",
        "am"
      ],
      [
        "edam",
        "ame"
      ],
      [
        "bo",
        "lo"
      ],
      [
        "t",
        "ri"
      ],
      [
        "bac",
        "on"
      ],
      [
        "pa",
        "ella"
      ],
      [
        "c",
        "y"
      ],
      [
        "g",
        "er"
      ],
      [
        "ta",
        "co"
      ],
      [
        "d",
        "ame"
      ],
      [
        "ma",
        "dame"
      ],
      [
        "cro",
        "que"
      ],
      [
        "de",
        "cor"
      ],
      [
        "et",
        "ta"
      ],
      [
        "pu",
        "dd"
      ],
      [
        "pudd",
        "ing"
      ],
      [
        "bur",
        "ger"
      ],
      [
        "shap",
        "es"
      ],
      [
        "v",
        "in"
      ],
      [
        "on",
        "na"
      ],
      [
        "may",
        "onna"
      ],
      [
        "mayonna",
        "ise"
      ],
      [
        "dic",
        "ed"
      ],
      [
        "ac",
        "ci"
      ],
      [
        "carp",
        "acci"
      ],
      [
        "carpacci",
        "o"
      ],
      [
        "is",
        "u"
      ],
      [
        "ti",
        "ram"
      ],
      [
        "tiram",
        "isu"
      ],
      [
        "a",
        "gn"
      ],
      [
        "las",
        "agn"
      ],
      [
        "lasagn",
        "a"
      ],
      [
        "ma",
        "de"
      ],
      [
        "ic",
        "t"
      ],
      [
        "en",
        "ed"
      ],
      [
        "ri",
        "b"
      ],
      [
        "b",
        "ened"
      ],
      [
        "bened",
        "ict"
      ],
      [
        "de",
        "v"
      ],
      [
        "p",
        "ho"
      ],
      [
        "ro",
        "s"
      ],
      [
        "fe",
        "l"
      ],
      [
        "la",
        "fel"
      ],
      [
        "fa",
        "lafel"
      ],
      [
        "il",
        "ed"
      ],
      [
        "dev",
        "iled"
      ],
      [
        "ta",
        "k"
      ],
      [
        "at",
        "ing"
      ],
      [
        "fla",
        "k"
      ],
      [
        "ch",
        "owder"
      ],
      [
        "ak",
        "i"
      ],
      [
        "oy",
        "aki"
      ],
      [
        "tak",
        "oyaki"
      ],
      [
        "p",
        "ad"
      ],
      [
        "e",
        "k"
      ],
      [
        "gn",
        "ese"
      ],
      [
        "bolo",
        "gnese"
      ],
      [
        "th",
        "ai"
      ],
      [
        "ter",
        "s"
      ],
      [
        "s",
        "ters"
      ],
      [
        "ca",
        "lam"
      ],
      [
        "oy",
        "sters"
      ],
      [
        "calam",
        "ari"
      ],
      [
        "ru",
        "p"
      ],
      [
        "sy",
        "rup"
      ],
      [
        "wa",
        "ff"
      ],
      [
        "as",
        "hi"
      ],
      [
        "p",
        "ic"
      ],
      [
        "s",
        "ashi"
      ],
      [
        "sashi",
        "mi"
      ],
      [
        "es",
        "ar"
      ],
      [
        "ca",
        "esar"
      ],
      [
        "thi",
        "ck"
      ],
      [
        "toast",
        "ed"
      ],
      [
        "a",
        "ts"
      ],
      [
        "me",
        "ats"
      ],
      [
        "r",
        "iso"
      ],
      [
        "riso",
        "tto"
      ],
      [
        "pic",
        "ally"
      ],
      [
        "ty",
        "pically"
      ],
      [
        "tu",
        "ce"
      ],
      [
        "let",
        "tuce"
      ],
      [
        "an",
        "ch"
      ],
      [
        "lay",
        "ers"
      ],
      [
        "gre",
        "ek"
      ],
      [
        "fill",
        "ings"
      ],
      [
        "w",
        "arm"
      ],
      [
        "ter",
        "i"
      ],
      [
        "bac",
        "k"
      ],
      [
        "ch",
        "ur"
      ],
      [
        "chur",
        "ros"
      ],
      [
        "e",
        "p"
      ],
      [
        "sh",
        "ort"
      ],
      [
        "la",
        "va"
      ],
      [
        "bak",
        "lava"
      ],
      [
        "de",
        "ep"
      ],
      [
        "clu",
        "b"
      ],
      [
        "p",
        "ar"
      ],
      [
        "pp",
        "ing"
      ],
      [
        "es",
        "car"
      ],
      [
        "escar",
        "go"
      ],
      [
        "ion",
        "s"
      ],
      [
        "m",
        "iso"
      ],
      [
        "un",
        "ch"
      ],
      [
        "sa",
        "mo"
      ],
      [
        "samo",
        "sa"
      ],
      [
        "t",
        "un"
      ],
      [
        "tun",
        "a"
      ],
      [
        "b",
        "rus"
      ],
      [
        "t",
        "ro"
      ],
      [
        "n",
        "ood"
      ],
      [
        "ch",
        "etta"
      ],
      [
        "brus",
        "chetta"
      ],
      [
        "nood",
        "les"
      ],
      [
        "be",
        "et"
      ],
      [
        "cr",
        "u"
      ],
      [
        "con",
        "di"
      ],
      [
        "can",
        "n"
      ],
      [
        "cann",
        "oli"
      ],
      [
        "di",
        "pping"
      ],
      [
        "k",
        "ing"
      ],
      [
        "o",
        "on"
      ],
      [
        "season",
        "ings"
      ],
      [
        "du",
        "ck"
      ],
      [
        "le",
        "mon"
      ],
      [
        "r",
        "anch"
      ],
      [
        "er",
        "os"
      ],
      [
        "v",
        "os"
      ],
      [
        "hue",
        "vos"
      ],
      [
        "ranch",
        "eros"
      ],
      [
        "teri",
        "or"
      ],
      [
        "su",
        "shi"
      ],
      [
        "pe",
        "king"
      ],
      [
        "condi",
        "ments"
      ],
      [
        "ram",
        "en"
      ],
      [
        "do",
        "g"
      ],
      [
        "gn",
        "oc"
      ],
      [
        "gnoc",
        "chi"
      ],
      [
        "pan",
        "na"
      ],
      [
        "bis",
        "que"
      ],
      [
        "p",
        "ri"
      ],
      [
        "pri",
        "me"
      ],
      [
        "b",
        "y"
      ],
      [
        "fro",
        "m"
      ],
      [
        "ce",
        "vi"
      ],
      [
        "cevi",
        "che"
      ],
      [
        "r",
        "ese"
      ],
      [
        "cap",
        "rese"
      ],
      [
        "ar",
        "k"
      ],
      [
        "eg",
        "ar"
      ],
      [
        "vin",
        "egar"
      ],
      [
        "nacho",
        "s"
      ],
      [
        "b",
        "er"
      ],
      [
        "d",
        "ark"
      ],
      [
        "e",
        "y"
      ],
      [
        "s",
        "ide"
      ],
      [
        "b",
        "ri"
      ],
      [
        "c",
        "en"
      ],
      [
        "cen",
        "ter"
      ],
      [
        "bri",
        "ght"
      ],
      [
        "cur",
        "ry"
      ],
      [
        "g",
        "la"
      ],
      [
        "gla",
        "z"
      ],
      [
        "t",
        "en"
      ],
      [
        "chi",
        "li"
      ],
      [
        "l",
        "in"
      ],
      [
        "z",
        "za"
      ],
      [
        "pi",
        "zza"
      ],
      [
        "crisp",
        "y"
      ],
      [
        "b",
        "ab"
      ],
      [
        "bab",
        "y"
      ],
      [
        "in",
        "n"
      ],
      [
        "n",
        "ut"
      ],
      [
        "pepp",
        "er"
      ],
      [
        "taco",
        "s"
      ],
      [
        "bas",
        "il"
      ],
      [
        "o",
        "ps"
      ],
      [
        "st",
        "raw"
      ],
      [
        "straw",
        "ber"
      ],
      [
        "s",
        "iz"
      ],
      [
        "sprink",
        "les"
      ],
      [
        "ste",
        "am"
      ],
      [
        "p",
        "ap"
      ],
      [
        "b",
        "la"
      ],
      [
        "p",
        "ou"
      ],
      [
        "bla",
        "ck"
      ],
      [
        "tin",
        "e"
      ],
      [
        "pou",
        "tine"
      ],
      [
        "mussel",
        "s"
      ],
      [
        "b",
        "un"
      ],
      [
        "g",
        "yo"
      ],
      [
        "gyo",
        "za"
      ],
      [
        "fro",
        "st"
      ],
      [
        "frost",
        "ing"
      ],
      [
        "accompani",
        "ments"
      ],
      [
        "scall",
        "ops"
      ],
      [
        "m",
        "ous"
      ],
      [
        "mous",
        "se"
      ],
      [
        "m",
        "ar"
      ],
      [
        "m",
        "in"
      ],
      [
        "e",
        "at"
      ],
      [
        "ta",
        "to"
      ],
      [
        "po",
        "tato"
      ],
      [
        "beignet",
        "s"
      ],
      [
        "ra",
        "vi"
      ],
      [
        "carro",
        "t"
      ],
      [
        "ravi",
        "oli"
      ],
      [
        "sprink",
        "led"
      ],
      [
        "ut",
        "on"
      ],
      [
        "cro",
        "uton"
      ],
      [
        "at",
        "ter"
      ],
      [
        "co",
        "ver"
      ],
      [
        "p",
        "as"
      ],
      [
        "v",
        "ed"
      ],
      [
        "cur",
        "ved"
      ],
      [
        "tri",
        "angular"
      ],
      [
        "o",
        "val"
      ],
      [
        "ar",
        "d"
      ],
      [
        "frui",
        "t"
      ],
      [
        "t",
        "ort"
      ],
      [
        "tort",
        "illa"
      ],
      [
        "o",
        "m"
      ],
      [
        "light",
        "ly"
      ],
      [
        "z",
        "z"
      ],
      [
        "s",
        "ing"
      ],
      [
        "op",
        "tional"
      ],
      [
        "strawber",
        "ry"
      ],
      [
        "color",
        "ed"
      ],
      [
        "w",
        "h"
      ],
      [
        "shell",
        "s"
      ],
      [
        "short",
        "cake"
      ],
      [
        "ac",
        "k"
      ],
      [
        "powder",
        "ed"
      ],
      [
        "r",
        "ad"
      ],
      [
        "pi",
        "ta"
      ],
      [
        "cr",
        "unch"
      ],
      [
        "d",
        "res"
      ],
      [
        "dres",
        "sing"
      ],
      [
        "am",
        "on"
      ],
      [
        "decor",
        "at"
      ],
      [
        "slic",
        "ed"
      ],
      [
        "crunch",
        "y"
      ],
      [
        "ou",
        "r"
      ],
      [
        "h",
        "ard"
      ],
      [
        "ou",
        "ts"
      ],
      [
        "outs",
        "ide"
      ],
      [
        "k",
        "in"
      ],
      [
        "flavor",
        "s"
      ],
      [
        "pan",
        "cakes"
      ],
      [
        "h",
        "am"
      ],
      [
        "m",
        "bs"
      ],
      [
        "whi",
        "pped"
      ],
      [
        "w",
        "ra"
      ],
      [
        "cru",
        "mbs"
      ],
      [
        "lu",
        "e"
      ],
      [
        "b",
        "lue"
      ],
      [
        "ta",
        "in"
      ],
      [
        "dd",
        "le"
      ],
      [
        "ca",
        "l"
      ],
      [
        "cy",
        "lin"
      ],
      [
        "mus",
        "tard"
      ],
      [
        "dri",
        "cal"
      ],
      [
        "cylin",
        "drical"
      ],
      [
        "con",
        "tain"
      ],
      [
        "app",
        "le"
      ],
      [
        "h",
        "al"
      ],
      [
        "a",
        "v"
      ],
      [
        "ch",
        "u"
      ],
      [
        "cheese",
        "cake"
      ],
      [
        "escargo",
        "ts"
      ],
      [
        "pie",
        "ce"
      ],
      [
        "yellow",
        "ish"
      ],
      [
        "p",
        "ro"
      ],
      [
        "b",
        "i"
      ],
      [
        "ro",
        "uts"
      ],
      [
        "sp",
        "routs"
      ],
      [
        "di",
        "p"
      ],
      [
        "cover",
        "ed"
      ],
      [
        "ou",
        "ter"
      ],
      [
        "ll",
        "us"
      ],
      [
        "mo",
        "llus"
      ],
      [
        "m",
        "as"
      ],
      [
        "color",
        "s"
      ],
      [
        "f",
        "l"
      ],
      [
        "h",
        "on"
      ],
      [
        "d",
        "ed"
      ],
      [
        "flak",
        "es"
      ],
      [
        "hon",
        "ey"
      ],
      [
        "pick",
        "les"
      ],
      [
        "e",
        "x"
      ],
      [
        "egg",
        "roll"
      ],
      [
        "garnish",
        "ed"
      ],
      [
        "c",
        "il"
      ],
      [
        "oli",
        "ves"
      ],
      [
        "an",
        "tro"
      ],
      [
        "cil",
        "antro"
      ],
      [
        "par",
        "s"
      ],
      [
        "le",
        "y"
      ],
      [
        "pars",
        "ley"
      ],
      [
        "pas",
        "ta"
      ],
      [
        "ex",
        "terior"
      ],
      [
        "t",
        "of"
      ],
      [
        "tof",
        "u"
      ],
      [
        "g",
        "ing"
      ],
      [
        "ging",
        "er"
      ],
      [
        "r",
        "ing"
      ],
      [
        "dough",
        "nut"
      ],
      [
        "m",
        "il"
      ],
      [
        "accompani",
        "ed"
      ],
      [
        "d",
        "ust"
      ],
      [
        "ri",
        "ch"
      ],
      [
        "dust",
        "ing"
      ],
      [
        "c",
        "us"
      ],
      [
        "cho",
        "pped"
      ],
      [
        "siz",
        "es"
      ],
      [
        "t",
        "ur"
      ],
      [
        "w",
        "y"
      ],
      [
        "che",
        "wy"
      ],
      [
        "roll",
        "s"
      ],
      [
        "i",
        "te"
      ],
      [
        "d",
        "rink"
      ],
      [
        "ou",
        "n"
      ],
      [
        "macar",
        "oon"
      ],
      [
        "in",
        "e"
      ],
      [
        "sp",
        "ring"
      ],
      [
        "ite",
        "m"
      ],
      [
        "drink",
        "s"
      ],
      [
        "ci",
        "al"
      ],
      [
        "sp",
        "e"
      ],
      [
        "cus",
        "tard"
      ],
      [
        "in",
        "clu"
      ],
      [
        "ste",
        "ak"
      ],
      [
        "spe",
        "cial"
      ],
      [
        "la",
        "t"
      ],
      [
        "co",
        "ating"
      ],
      [
        "crouton",
        "s"
      ],
      [
        "p",
        "arm"
      ],
      [
        "es",
        "an"
      ],
      [
        "parm",
        "esan"
      ],
      [
        "g",
        "round"
      ],
      [
        "ar",
        "ella"
      ],
      [
        "mo",
        "zz"
      ],
      [
        "mozz",
        "arella"
      ],
      [
        "sau",
        "sa"
      ],
      [
        "d",
        "is"
      ],
      [
        "dis",
        "tin"
      ],
      [
        "waff",
        "le"
      ],
      [
        "ins",
        "ide"
      ],
      [
        "us",
        "ed"
      ],
      [
        "cup",
        "cake"
      ],
      [
        "b",
        "b"
      ],
      [
        "v",
        "y"
      ],
      [
        "gra",
        "vy"
      ],
      [
        "con",
        "s"
      ],
      [
        "hi",
        "n"
      ],
      [
        "cr",
        "ack"
      ],
      [
        "c",
        "inn"
      ],
      [
        "cinn",
        "amon"
      ],
      [
        "me",
        "al"
      ],
      [
        "steam",
        "ed"
      ],
      [
        "mix",
        "ed"
      ],
      [
        "macaron",
        "s"
      ],
      [
        "mb",
        "ers"
      ],
      [
        "cu",
        "cu"
      ],
      [
        "cucu",
        "mbers"
      ],
      [
        "layer",
        "ed"
      ],
      [
        "er",
        "y"
      ],
      [
        "fl",
        "our"
      ],
      [
        "a",
        "ch"
      ],
      [
        "s",
        "n"
      ],
      [
        "b",
        "et"
      ],
      [
        "we",
        "en"
      ],
      [
        "bet",
        "ween"
      ],
      [
        "decorat",
        "ions"
      ],
      [
        "b",
        "all"
      ],
      [
        "le",
        "ct"
      ],
      [
        "and",
        "a"
      ],
      [
        "ll",
        "anda"
      ],
      [
        "llanda",
        "ise"
      ],
      [
        "hot",
        "dog"
      ],
      [
        "bon",
        "e"
      ],
      [
        "bas",
        "e"
      ],
      [
        "k",
        "et"
      ],
      [
        "gra",
        "ins"
      ],
      [
        "p",
        "lat"
      ],
      [
        "an",
        "o"
      ],
      [
        "pap",
        "er"
      ],
      [
        "chu",
        "p"
      ],
      [
        "ket",
        "chup"
      ],
      [
        "h",
        "ed"
      ],
      [
        "mas",
        "hed"
      ],
      [
        "ma",
        "in"
      ],
      [
        "ll",
        "op"
      ],
      [
        "do",
        "llop"
      ],
      [
        "b",
        "led"
      ],
      [
        "garnish",
        "es"
      ],
      [
        "s",
        "lightly"
      ],
      [
        "d",
        "on"
      ],
      [
        "m",
        "ent"
      ],
      [
        "l",
        "ery"
      ],
      [
        "gre",
        "y"
      ],
      [
        "ty",
        "pe"
      ],
      [
        "scall",
        "ions"
      ],
      [
        "e",
        "al"
      ],
      [
        "th",
        "at"
      ],
      [
        "ce",
        "lery"
      ],
      [
        "p",
        "en"
      ],
      [
        "j",
        "u"
      ],
      [
        "b",
        "atter"
      ],
      [
        "ju",
        "ice"
      ],
      [
        "j",
        "a"
      ],
      [
        "ja",
        "la"
      ],
      [
        "sprink",
        "le"
      ],
      [
        "rad",
        "ish"
      ],
      [
        "mollus",
        "k"
      ],
      [
        "jala",
        "pen"
      ],
      [
        "li",
        "me"
      ],
      [
        "thin",
        "ly"
      ],
      [
        "glaz",
        "e"
      ],
      [
        "sp",
        "oon"
      ],
      [
        "li",
        "an"
      ],
      [
        "I",
        "ta"
      ],
      [
        "french",
        "toast"
      ],
      [
        "Ita",
        "lian"
      ],
      [
        "all",
        "ow"
      ],
      [
        "cons",
        "is"
      ],
      [
        "sh",
        "allow"
      ],
      [
        "ten",
        "cy"
      ],
      [
        "consis",
        "tency"
      ],
      [
        "flak",
        "y"
      ],
      [
        "wra",
        "pped"
      ],
      [
        "l",
        "ish"
      ],
      [
        "b",
        "oil"
      ],
      [
        "boil",
        "ed"
      ],
      [
        "f",
        "an"
      ],
      [
        "crack",
        "ers"
      ],
      [
        "r",
        "on"
      ],
      [
        "ic",
        "ing"
      ],
      [
        "p",
        "le"
      ],
      [
        "sausa",
        "ge"
      ],
      [
        "u",
        "al"
      ],
      [
        "ham",
        "burger"
      ],
      [
        "mil",
        "k"
      ],
      [
        "omelet",
        "te"
      ],
      [
        "chocolate",
        "cake"
      ],
      [
        "ball",
        "s"
      ],
      [
        "ro",
        "om"
      ],
      [
        "val",
        "ve"
      ],
      [
        "bi",
        "valve"
      ],
      [
        "lar",
        "ge"
      ],
      [
        "sh",
        "room"
      ],
      [
        "mu",
        "shroom"
      ],
      [
        "wh",
        "eat"
      ],
      [
        "k",
        "a"
      ],
      [
        "ri",
        "ka"
      ],
      [
        "pap",
        "rika"
      ],
      [
        "a",
        "ge"
      ],
      [
        "mu",
        "l"
      ],
      [
        "mul",
        "ti"
      ],
      [
        "mushroom",
        "s"
      ],
      [
        "l",
        "ing"
      ],
      [
        "ri",
        "d"
      ],
      [
        "c",
        "ed"
      ],
      [
        "pick",
        "led"
      ],
      [
        "hal",
        "ves"
      ],
      [
        "o",
        "ca"
      ],
      [
        "inn",
        "er"
      ],
      [
        "av",
        "oca"
      ],
      [
        "avoca",
        "do"
      ],
      [
        "radish",
        "es"
      ],
      [
        "g",
        "ed"
      ],
      [
        "r",
        "ame"
      ],
      [
        "rame",
        "kin"
      ],
      [
        "con",
        "e"
      ],
      [
        "es",
        "s"
      ],
      [
        "serv",
        "ing"
      ],
      [
        "al",
        "ong"
      ],
      [
        "mi",
        "xture"
      ],
      [
        "b",
        "u"
      ],
      [
        "spic",
        "y"
      ],
      [
        "in",
        "terior"
      ],
      [
        "gri",
        "ddle"
      ],
      [
        "garnish",
        "ment"
      ],
      [
        "to",
        "oth"
      ],
      [
        "tooth",
        "pick"
      ],
      [
        "bis",
        "tro"
      ],
      [
        "b",
        "al"
      ],
      [
        "decor",
        "ated"
      ],
      [
        "te",
        "x"
      ],
      [
        "m",
        "ic"
      ],
      [
        "sa",
        "mic"
      ],
      [
        "bal",
        "samic"
      ],
      [
        "s",
        "i"
      ],
      [
        "w",
        "as"
      ],
      [
        "p",
        "atter"
      ],
      [
        "patter",
        "n"
      ],
      [
        "ab",
        "i"
      ],
      [
        "was",
        "abi"
      ],
      [
        "slic",
        "e"
      ],
      [
        "item",
        "s"
      ],
      [
        "gr",
        "ated"
      ],
      [
        "r",
        "ang"
      ],
      [
        "dri",
        "ed"
      ],
      [
        "min",
        "t"
      ],
      [
        "tur",
        "es"
      ],
      [
        "don",
        "uts"
      ],
      [
        "tex",
        "tures"
      ],
      [
        "vis",
        "ual"
      ],
      [
        "cu",
        "lar"
      ],
      [
        "pan",
        "cake"
      ],
      [
        "or",
        "eg"
      ],
      [
        "inclu",
        "de"
      ],
      [
        "oreg",
        "ano"
      ],
      [
        "pink",
        "ish"
      ],
      [
        "s",
        "il"
      ],
      [
        "sugar",
        "y"
      ],
      [
        "e",
        "c"
      ],
      [
        "ar",
        "o"
      ],
      [
        "aro",
        "ma"
      ],
      [
        "escargo",
        "t"
      ],
      [
        "wh",
        "en"
      ],
      [
        "des",
        "ign"
      ],
      [
        "ci",
        "r"
      ],
      [
        "sh",
        "red"
      ],
      [
        "shred",
        "ded"
      ],
      [
        "f",
        "u"
      ],
      [
        "cir",
        "cular"
      ],
      [
        "appetiz",
        "ing"
      ],
      [
        "the",
        "y"
      ],
      [
        "pork",
        "chop"
      ],
      [
        "ame",
        "l"
      ],
      [
        "cap",
        "ers"
      ],
      [
        "po",
        "in"
      ],
      [
        "se",
        "mi"
      ],
      [
        "n",
        "e"
      ],
      [
        "sal",
        "t"
      ],
      [
        "ed",
        "ge"
      ],
      [
        "ad",
        "d"
      ],
      [
        "app",
        "eal"
      ],
      [
        "season",
        "ed"
      ],
      [
        "f",
        "lu"
      ],
      [
        "p",
        "lu"
      ],
      [
        "ff",
        "y"
      ],
      [
        "flu",
        "ffy"
      ],
      [
        "tar",
        "t"
      ],
      [
        "bright",
        "ly"
      ],
      [
        "c",
        "er"
      ],
      [
        "bak",
        "ed"
      ],
      [
        "glaz",
        "ed"
      ],
      [
        "ta",
        "il"
      ],
      [
        "in",
        "ed"
      ],
      [
        "fat",
        "ty"
      ],
      [
        "butter",
        "y"
      ],
      [
        "ti",
        "ve"
      ],
      [
        "bu",
        "bb"
      ],
      [
        "waff",
        "led"
      ],
      [
        "er",
        "ent"
      ],
      [
        "di",
        "ff"
      ],
      [
        "diff",
        "erent"
      ],
      [
        "b",
        "ar"
      ],
      [
        "f",
        "lo"
      ],
      [
        "flo",
        "ating"
      ],
      [
        "et",
        "c"
      ],
      [
        "design",
        "s"
      ],
      [
        "f",
        "ine"
      ],
      [
        "on",
        "e"
      ],
      [
        "oun",
        "d"
      ],
      [
        "c",
        "tive"
      ],
      [
        "ra",
        "is"
      ],
      [
        "serv",
        "es"
      ],
      [
        "qu",
        "ent"
      ],
      [
        "fre",
        "quent"
      ],
      [
        "rad",
        "i"
      ],
      [
        "lect",
        "ic"
      ],
      [
        "ec",
        "lectic"
      ],
      [
        "frequent",
        "ly"
      ],
      [
        "l",
        "en"
      ],
      [
        "gra",
        "ined"
      ],
      [
        "s",
        "kin"
      ],
      [
        "fu",
        "l"
      ],
      [
        "yo",
        "l"
      ],
      [
        "ar",
        "y"
      ],
      [
        "an",
        "cho"
      ],
      [
        "vi",
        "es"
      ],
      [
        "ancho",
        "vies"
      ],
      [
        "v",
        "ary"
      ],
      [
        "mi",
        "ddle"
      ],
      [
        "ho",
        "le"
      ],
      [
        "distin",
        "ctive"
      ],
      [
        "p",
        "l"
      ],
      [
        "bread",
        "crumbs"
      ],
      [
        "and",
        "er"
      ],
      [
        "i",
        "ander"
      ],
      [
        "cu",
        "min"
      ],
      [
        "cor",
        "iander"
      ],
      [
        "pro",
        "du"
      ],
      [
        "ten",
        "der"
      ],
      [
        "ld",
        "ed"
      ],
      [
        "ff",
        "in"
      ],
      [
        "mu",
        "ffin"
      ],
      [
        "ai",
        "ry"
      ],
      [
        "is",
        "in"
      ],
      [
        "ho",
        "isin"
      ],
      [
        "ri",
        "cotta"
      ],
      [
        "mar",
        "ks"
      ],
      [
        "ad",
        "ded"
      ],
      [
        "n",
        "ess"
      ],
      [
        "fo",
        "lded"
      ],
      [
        "w",
        "edge"
      ],
      [
        "jalapen",
        "os"
      ],
      [
        "produ",
        "ct"
      ],
      [
        "eat",
        "en"
      ],
      [
        "g",
        "th"
      ],
      [
        "ct",
        "ion"
      ],
      [
        "len",
        "gth"
      ],
      [
        "d",
        "airy"
      ],
      [
        "ai",
        "r"
      ],
      [
        "round",
        "ish"
      ],
      [
        "i",
        "es"
      ],
      [
        "y",
        "s"
      ],
      [
        "cheese",
        "burger"
      ],
      [
        "be",
        "ak"
      ],
      [
        "an",
        "t"
      ],
      [
        "f",
        "ork"
      ],
      [
        "siz",
        "e"
      ],
      [
        "s",
        "tar"
      ],
      [
        "wa",
        "ys"
      ],
      [
        "p",
        "od"
      ],
      [
        "star",
        "ter"
      ],
      [
        "s",
        "cr"
      ],
      [
        "am",
        "bled"
      ],
      [
        "scr",
        "ambled"
      ],
      [
        "plat",
        "ter"
      ],
      [
        "ice",
        "cream"
      ],
      [
        "t",
        "as"
      ],
      [
        "in",
        "to"
      ],
      [
        "tas",
        "te"
      ],
      [
        "l",
        "unch"
      ],
      [
        "sh",
        "av"
      ],
      [
        "shav",
        "ings"
      ],
      [
        "e",
        "long"
      ],
      [
        "elong",
        "ated"
      ],
      [
        "hal",
        "f"
      ],
      [
        "fe",
        "e"
      ],
      [
        "c",
        "of"
      ],
      [
        "ar",
        "rang"
      ],
      [
        "cof",
        "fee"
      ],
      [
        "arrang",
        "ed"
      ],
      [
        "sp",
        "in"
      ],
      [
        "rais",
        "ins"
      ],
      [
        "spin",
        "ach"
      ],
      [
        "p",
        "es"
      ],
      [
        "at",
        "ion"
      ],
      [
        "na",
        "il"
      ],
      [
        "u",
        "c"
      ],
      [
        "s",
        "nail"
      ],
      [
        "pp",
        "er"
      ],
      [
        "wra",
        "pper"
      ],
      [
        "o",
        "ver"
      ],
      [
        "st",
        "ri"
      ],
      [
        "t",
        "ra"
      ],
      [
        "rich",
        "ness"
      ],
      [
        "dri",
        "zz"
      ],
      [
        "fresh",
        "ly"
      ],
      [
        "n",
        "y"
      ],
      [
        "w",
        "at"
      ],
      [
        "ch",
        "amel"
      ],
      [
        "be",
        "chamel"
      ],
      [
        "ho",
        "llandaise"
      ],
      [
        "drizz",
        "led"
      ],
      [
        "bro",
        "ad"
      ],
      [
        "tw",
        "is"
      ],
      [
        "brown",
        "ed"
      ],
      [
        "shi",
        "ny"
      ],
      [
        "pro",
        "te"
      ],
      [
        "j",
        "ell"
      ],
      [
        "jell",
        "y"
      ],
      [
        "sur",
        "round"
      ],
      [
        "d",
        "s"
      ],
      [
        "tra",
        "y"
      ],
      [
        "s",
        "ke"
      ],
      [
        "t",
        "radi"
      ],
      [
        "ri",
        "es"
      ],
      [
        "chocolate",
        "mousse"
      ],
      [
        "tradi",
        "tional"
      ],
      [
        "w",
        "er"
      ],
      [
        "ske",
        "wer"
      ],
      [
        "multi",
        "ple"
      ],
      [
        "color",
        "ful"
      ],
      [
        "op",
        "en"
      ],
      [
        "co",
        "con"
      ],
      [
        "food",
        "s"
      ],
      [
        "f",
        "et"
      ],
      [
        "i",
        "m"
      ],
      [
        "p",
        "at"
      ],
      [
        "os",
        "ed"
      ],
      [
        "distin",
        "ct"
      ],
      [
        "cocon",
        "ut"
      ],
      [
        "p",
        "ill"
      ],
      [
        "ch",
        "in"
      ],
      [
        "pill",
        "ow"
      ],
      [
        "be",
        "ll"
      ],
      [
        "ar",
        "t"
      ],
      [
        "s",
        "wi"
      ],
      [
        "k",
        "en"
      ],
      [
        "comp",
        "osed"
      ],
      [
        "si",
        "des"
      ],
      [
        "swi",
        "r"
      ],
      [
        "ad",
        "di"
      ],
      [
        "w",
        "hole"
      ],
      [
        "bro",
        "ken"
      ],
      [
        "sn",
        "ack"
      ],
      [
        "E",
        "n"
      ],
      [
        "g",
        "lish"
      ],
      [
        "En",
        "glish"
      ],
      [
        "z",
        "uc"
      ],
      [
        "chin",
        "i"
      ],
      [
        "zuc",
        "chini"
      ],
      [
        "i",
        "an"
      ],
      [
        "C",
        "an"
      ],
      [
        "ad",
        "ian"
      ],
      [
        "Can",
        "adian"
      ],
      [
        "co",
        "a"
      ],
      [
        "co",
        "coa"
      ],
      [
        "or",
        "e"
      ],
      [
        "co",
        "m"
      ],
      [
        "H",
        "o"
      ],
      [
        "poin",
        "ted"
      ],
      [
        "Ho",
        "llandaise"
      ],
      [
        "r",
        "ange"
      ],
      [
        "re",
        "fried"
      ],
      [
        "lo",
        "ok"
      ],
      [
        "comp",
        "art"
      ],
      [
        "compart",
        "ments"
      ],
      [
        "p",
        "res"
      ],
      [
        "cut",
        "let"
      ],
      [
        "flavor",
        "ings"
      ],
      [
        "plu",
        "mp"
      ],
      [
        "addi",
        "tional"
      ],
      [
        "di",
        "amon"
      ],
      [
        "pod",
        "s"
      ],
      [
        "diamon",
        "d"
      ],
      [
        "com",
        "mon"
      ],
      [
        "common",
        "ly"
      ],
      [
        "le",
        "a"
      ],
      [
        "po",
        "ach"
      ],
      [
        "poach",
        "ed"
      ],
      [
        "d",
        "ing"
      ],
      [
        "t",
        "am"
      ],
      [
        "i",
        "ght"
      ],
      [
        "la",
        "w"
      ],
      [
        "ho",
        "ld"
      ],
      [
        "in",
        "d"
      ],
      [
        "th",
        "er"
      ],
      [
        "do",
        "me"
      ],
      [
        "i",
        "ve"
      ],
      [
        "w",
        "ise"
      ],
      [
        "length",
        "wise"
      ],
      [
        "ac",
        "ks"
      ],
      [
        "serv",
        "e"
      ],
      [
        "p",
        "ort"
      ],
      [
        "sn",
        "acks"
      ],
      [
        "s",
        "k"
      ],
      [
        "decorat",
        "ive"
      ],
      [
        "port",
        "ion"
      ],
      [
        "appetiz",
        "ers"
      ],
      [
        "b",
        "ling"
      ],
      [
        "tri",
        "ang"
      ],
      [
        "mar",
        "bling"
      ],
      [
        "ab",
        "le"
      ],
      [
        "lea",
        "ves"
      ],
      [
        "es",
        "es"
      ],
      [
        "che",
        "eses"
      ],
      [
        "s",
        "li"
      ],
      [
        "ill",
        "et"
      ],
      [
        "sk",
        "illet"
      ],
      [
        "be",
        "ver"
      ],
      [
        "triang",
        "le"
      ],
      [
        "col",
        "our"
      ],
      [
        "potato",
        "es"
      ],
      [
        "ra",
        "ight"
      ],
      [
        "st",
        "raight"
      ],
      [
        "c",
        "ent"
      ],
      [
        "twis",
        "ted"
      ],
      [
        "v",
        "en"
      ],
      [
        "co",
        "les"
      ],
      [
        "coles",
        "law"
      ],
      [
        "yol",
        "ks"
      ],
      [
        "sli",
        "m"
      ],
      [
        "s",
        "oli"
      ],
      [
        "li",
        "z"
      ],
      [
        "bo",
        "tto"
      ],
      [
        "waff",
        "les"
      ],
      [
        "botto",
        "m"
      ],
      [
        "car",
        "ame"
      ],
      [
        "slim",
        "y"
      ],
      [
        "liz",
        "ed"
      ],
      [
        "carame",
        "lized"
      ],
      [
        "t",
        "ing"
      ],
      [
        "bread",
        "ing"
      ],
      [
        "or",
        "i"
      ],
      [
        "pat",
        "ty"
      ],
      [
        "bever",
        "age"
      ],
      [
        "a",
        "on"
      ],
      [
        "i",
        "to"
      ],
      [
        "bon",
        "ito"
      ],
      [
        "aon",
        "ori"
      ],
      [
        "ar",
        "ind"
      ],
      [
        "pa",
        "le"
      ],
      [
        "tam",
        "arind"
      ],
      [
        "is",
        "ine"
      ],
      [
        "cu",
        "isine"
      ],
      [
        "K",
        "ore"
      ],
      [
        "Kore",
        "an"
      ],
      [
        "flat",
        "bread"
      ],
      [
        "garnish",
        "ments"
      ],
      [
        "pas",
        "te"
      ],
      [
        "contain",
        "ing"
      ],
      [
        "col",
        "d"
      ],
      [
        "rid",
        "ged"
      ],
      [
        "be",
        "cu"
      ],
      [
        "bar",
        "becu"
      ],
      [
        "barbecu",
        "e"
      ],
      [
        "j",
        "ang"
      ],
      [
        "go",
        "chu"
      ],
      [
        "gochu",
        "jang"
      ],
      [
        "min",
        "ced"
      ],
      [
        "co",
        "mb"
      ],
      [
        "i",
        "d"
      ],
      [
        "or",
        "iz"
      ],
      [
        "re",
        "e"
      ],
      [
        "green",
        "s"
      ],
      [
        "ch",
        "oriz"
      ],
      [
        "choriz",
        "o"
      ],
      [
        "soli",
        "d"
      ],
      [
        "rid",
        "ges"
      ],
      [
        "J",
        "ap"
      ],
      [
        "an",
        "ese"
      ],
      [
        "th",
        "ree"
      ],
      [
        "Jap",
        "anese"
      ],
      [
        "am",
        "ic"
      ],
      [
        "cru",
        "mb"
      ],
      [
        "steam",
        "ing"
      ],
      [
        "f",
        "le"
      ],
      [
        "d",
        "inner"
      ],
      [
        "p",
        "os"
      ],
      [
        "cur",
        "ds"
      ],
      [
        "i",
        "r"
      ],
      [
        "cer",
        "amic"
      ],
      [
        "p",
        "ron"
      ],
      [
        "re",
        "lish"
      ],
      [
        "ve",
        "ins"
      ],
      [
        "oun",
        "ced"
      ],
      [
        "pron",
        "ounced"
      ],
      [
        "b",
        "ed"
      ],
      [
        "top",
        "us"
      ],
      [
        "lam",
        "b"
      ],
      [
        "oc",
        "topus"
      ],
      [
        "f",
        "ound"
      ],
      [
        "fet",
        "a"
      ],
      [
        "w",
        "al"
      ],
      [
        "co",
        "u"
      ],
      [
        "co",
        "ur"
      ],
      [
        "mollus",
        "ks"
      ],
      [
        "ck",
        "s"
      ],
      [
        "pos",
        "s"
      ],
      [
        "wal",
        "nuts"
      ],
      [
        "poss",
        "ible"
      ],
      [
        "pe",
        "an"
      ],
      [
        "pes",
        "to"
      ],
      [
        "wat",
        "ers"
      ],
      [
        "inclu",
        "ding"
      ],
      [
        "mar",
        "bled"
      ],
      [
        "bon",
        "es"
      ],
      [
        "season",
        "ing"
      ],
      [
        "cour",
        "se"
      ],
      [
        "in",
        "ation"
      ],
      [
        "comb",
        "ination"
      ],
      [
        "p",
        "ur"
      ],
      [
        "ma",
        "l"
      ],
      [
        "cou",
        "ld"
      ],
      [
        "c",
        "les"
      ],
      [
        "fe",
        "ction"
      ],
      [
        "pur",
        "ple"
      ],
      [
        "con",
        "fection"
      ],
      [
        "t",
        "ter"
      ],
      [
        "bi",
        "ts"
      ],
      [
        "mal",
        "t"
      ],
      [
        "en",
        "sil"
      ],
      [
        "ut",
        "ensil"
      ],
      [
        "chi",
        "ves"
      ],
      [
        "variet",
        "ies"
      ],
      [
        "ten",
        "ta"
      ],
      [
        "ast",
        "ic"
      ],
      [
        "hin",
        "ged"
      ],
      [
        "w",
        "edges"
      ],
      [
        "pl",
        "astic"
      ],
      [
        "tenta",
        "cles"
      ],
      [
        "op",
        "ed"
      ],
      [
        "scall",
        "oped"
      ],
      [
        "sal",
        "ty"
      ],
      [
        "se",
        "mo"
      ],
      [
        "lin",
        "a"
      ],
      [
        "semo",
        "lina"
      ],
      [
        "on",
        "ge"
      ],
      [
        "re",
        "ad"
      ],
      [
        "sp",
        "onge"
      ],
      [
        "sp",
        "read"
      ],
      [
        "fri",
        "tter"
      ],
      [
        "dumpl",
        "ing"
      ],
      [
        "hin",
        "t"
      ],
      [
        "c",
        "as"
      ],
      [
        "f",
        "ing"
      ],
      [
        "ter",
        "n"
      ],
      [
        "lad",
        "y"
      ],
      [
        "f",
        "used"
      ],
      [
        "in",
        "fused"
      ],
      [
        "sa",
        "ff"
      ],
      [
        "fing",
        "ers"
      ],
      [
        "saff",
        "ron"
      ],
      [
        "ca",
        "bb"
      ],
      [
        "beet",
        "s"
      ],
      [
        "lady",
        "fingers"
      ],
      [
        "cabb",
        "age"
      ],
      [
        "se",
        "lect"
      ],
      [
        "pean",
        "uts"
      ],
      [
        "l",
        "s"
      ],
      [
        "carp",
        "one"
      ],
      [
        "mas",
        "carpone"
      ],
      [
        "d",
        "le"
      ],
      [
        "f",
        "les"
      ],
      [
        "n",
        "od"
      ],
      [
        "ar",
        "by"
      ],
      [
        "ne",
        "arby"
      ],
      [
        "fles",
        "h"
      ],
      [
        "nod",
        "dle"
      ],
      [
        "al",
        "tern"
      ],
      [
        "altern",
        "ating"
      ],
      [
        "m",
        "er"
      ],
      [
        "nut",
        "ty"
      ],
      [
        "W",
        "or"
      ],
      [
        "ter",
        "shi"
      ],
      [
        "ces",
        "tershi"
      ],
      [
        "sil",
        "ver"
      ],
      [
        "Wor",
        "cestershi"
      ],
      [
        "Worcestershi",
        "re"
      ],
      [
        "select",
        "ion"
      ],
      [
        "surround",
        "ing"
      ],
      [
        "ch",
        "ar"
      ],
      [
        "cre",
        "pe"
      ],
      [
        "glaz",
        "es"
      ],
      [
        "to",
        "ge"
      ],
      [
        "brown",
        "ie"
      ],
      [
        "toge",
        "ther"
      ],
      [
        "hu",
        "ed"
      ],
      [
        "jalapen",
        "o"
      ],
      [
        "j",
        "am"
      ],
      [
        "cover",
        "ing"
      ],
      [
        "velvet",
        "y"
      ],
      [
        "h",
        "e"
      ],
      [
        "bubb",
        "ling"
      ],
      [
        "pres",
        "ent"
      ],
      [
        "te",
        "a"
      ],
      [
        "swir",
        "ls"
      ],
      [
        "dish",
        "es"
      ],
      [
        "stri",
        "ps"
      ],
      [
        "n",
        "ey"
      ],
      [
        "w",
        "ood"
      ],
      [
        "ch",
        "ut"
      ],
      [
        "chut",
        "ney"
      ],
      [
        "sandwich",
        "es"
      ],
      [
        "om",
        "et"
      ],
      [
        "s",
        "omet"
      ],
      [
        "im",
        "es"
      ],
      [
        "somet",
        "imes"
      ],
      [
        "se",
        "par"
      ],
      [
        "separ",
        "ated"
      ],
      [
        "do",
        "ts"
      ],
      [
        "crisp",
        "ed"
      ],
      [
        "f",
        "i"
      ],
      [
        "bubb",
        "les"
      ],
      [
        "un",
        "g"
      ],
      [
        "p",
        "ung"
      ],
      [
        "vinegar",
        "ed"
      ],
      [
        "ey",
        "es"
      ],
      [
        "toothpick",
        "s"
      ],
      [
        "pung",
        "ent"
      ],
      [
        "gra",
        "y"
      ],
      [
        "w",
        "is"
      ],
      [
        "wis",
        "ps"
      ],
      [
        "ta",
        "hin"
      ],
      [
        "tahin",
        "i"
      ],
      [
        "meat",
        "y"
      ],
      [
        "ri",
        "c"
      ],
      [
        "crumb",
        "ly"
      ],
      [
        "clam",
        "s"
      ],
      [
        "gray",
        "ish"
      ],
      [
        "ha",
        "i"
      ],
      [
        "T",
        "hai"
      ],
      [
        "o",
        "ven"
      ],
      [
        "gri",
        "d"
      ],
      [
        "plat",
        "es"
      ],
      [
        "t",
        "rus"
      ],
      [
        "ar",
        "es"
      ],
      [
        "ad",
        "e"
      ],
      [
        "chick",
        "pe"
      ],
      [
        "squ",
        "ares"
      ],
      [
        "m",
        "eg"
      ],
      [
        "g",
        "las"
      ],
      [
        "ar",
        "om"
      ],
      [
        "nut",
        "meg"
      ],
      [
        "arom",
        "as"
      ],
      [
        "t",
        "te"
      ],
      [
        "ci",
        "trus"
      ],
      [
        "ou",
        "t"
      ],
      [
        "gre",
        "tte"
      ],
      [
        "ai",
        "grette"
      ],
      [
        "vin",
        "aigrette"
      ],
      [
        "j",
        "e"
      ],
      [
        "in",
        "ade"
      ],
      [
        "mar",
        "inade"
      ],
      [
        "mil",
        "d"
      ],
      [
        "tur",
        "mer"
      ],
      [
        "prote",
        "ins"
      ],
      [
        "turmer",
        "ic"
      ],
      [
        "fa",
        "va"
      ],
      [
        "chickpe",
        "as"
      ],
      [
        "r",
        "ong"
      ],
      [
        "air",
        "s"
      ],
      [
        "re",
        "g"
      ],
      [
        "ste",
        "w"
      ],
      [
        "fle",
        "cks"
      ],
      [
        "i",
        "t"
      ],
      [
        "p",
        "airs"
      ],
      [
        "wood",
        "en"
      ],
      [
        "ed",
        "ible"
      ],
      [
        "li",
        "ver"
      ],
      [
        "con",
        "cent"
      ],
      [
        "bro",
        "us"
      ],
      [
        "cu",
        "ps"
      ],
      [
        "fi",
        "brous"
      ],
      [
        "concent",
        "ric"
      ],
      [
        "salad",
        "s"
      ],
      [
        "en",
        "er"
      ],
      [
        "se",
        "al"
      ],
      [
        "reg",
        "ular"
      ],
      [
        "ir",
        "regular"
      ],
      [
        "s",
        "to"
      ],
      [
        "seal",
        "ed"
      ],
      [
        "A",
        "si"
      ],
      [
        "Asi",
        "an"
      ],
      [
        "past",
        "ries"
      ],
      [
        "c",
        "rimp"
      ],
      [
        "crimp",
        "ed"
      ],
      [
        "st",
        "y"
      ],
      [
        "st",
        "rong"
      ],
      [
        "sty",
        "le"
      ],
      [
        "s",
        "co"
      ],
      [
        "h",
        "eat"
      ],
      [
        "g",
        "ener"
      ],
      [
        "glas",
        "s"
      ],
      [
        "t",
        "or"
      ],
      [
        "t",
        "an"
      ],
      [
        "sour",
        "ce"
      ],
      [
        "strawber",
        "ries"
      ],
      [
        "gener",
        "ous"
      ],
      [
        "sto",
        "ve"
      ],
      [
        "l",
        "or"
      ],
      [
        "par",
        "lor"
      ],
      [
        "fork",
        "ed"
      ],
      [
        "at",
        "u"
      ],
      [
        "bowl",
        "s"
      ],
      [
        "cer",
        "eal"
      ],
      [
        "tor",
        "ch"
      ],
      [
        "b",
        "ok"
      ],
      [
        "cho",
        "y"
      ],
      [
        "di",
        "vi"
      ],
      [
        "in",
        "divi"
      ],
      [
        "du",
        "al"
      ],
      [
        "indivi",
        "dual"
      ],
      [
        "sp",
        "ong"
      ],
      [
        "spong",
        "y"
      ],
      [
        "ar",
        "ound"
      ],
      [
        "squ",
        "id"
      ],
      [
        "ang",
        "les"
      ],
      [
        "rect",
        "angles"
      ],
      [
        "a",
        "f"
      ],
      [
        "lo",
        "af"
      ],
      [
        "sausa",
        "ges"
      ],
      [
        "m",
        "et"
      ],
      [
        "cook",
        "ing"
      ],
      [
        "gr",
        "ano"
      ],
      [
        "grano",
        "la"
      ],
      [
        "g",
        "an"
      ],
      [
        "in",
        "vi"
      ],
      [
        "ri",
        "m"
      ],
      [
        "invi",
        "ting"
      ],
      [
        "ma",
        "ge"
      ],
      [
        "met",
        "al"
      ],
      [
        "o",
        "t"
      ],
      [
        "d",
        "ill"
      ],
      [
        "ch",
        "ed"
      ],
      [
        "st",
        "ru"
      ],
      [
        "pl",
        "ant"
      ],
      [
        "at",
        "ta"
      ],
      [
        "a",
        "che"
      ],
      [
        "gan",
        "ache"
      ],
      [
        "atta",
        "ched"
      ],
      [
        "poin",
        "ts"
      ],
      [
        "c",
        "etta"
      ],
      [
        "pan",
        "cetta"
      ],
      [
        "atu",
        "la"
      ],
      [
        "f",
        "in"
      ],
      [
        "fin",
        "ish"
      ],
      [
        "de",
        "l"
      ],
      [
        "stru",
        "del"
      ],
      [
        "g",
        "ame"
      ],
      [
        "plu",
        "mage"
      ],
      [
        "game",
        "y"
      ],
      [
        "k",
        "o"
      ],
      [
        "pan",
        "ko"
      ],
      [
        "po",
        "t"
      ],
      [
        "don",
        "ut"
      ],
      [
        "op",
        "tion"
      ],
      [
        "lad",
        "le"
      ],
      [
        "prote",
        "in"
      ],
      [
        "od",
        "y"
      ],
      [
        "co",
        "un"
      ],
      [
        "coun",
        "ter"
      ],
      [
        "he",
        "ad"
      ],
      [
        "b",
        "ody"
      ],
      [
        "pro",
        "je"
      ],
      [
        "proje",
        "ction"
      ],
      [
        "pp",
        "y"
      ],
      [
        "po",
        "ppy"
      ],
      [
        "ne",
        "ck"
      ],
      [
        "n",
        "i"
      ],
      [
        "ra",
        "te"
      ],
      [
        "con",
        "gr"
      ],
      [
        "atula",
        "tion"
      ],
      [
        "congr",
        "atulation"
      ],
      [
        "b",
        "rate"
      ],
      [
        "ce",
        "le"
      ],
      [
        "mashed",
        "potato"
      ],
      [
        "yol",
        "k"
      ],
      [
        "cele",
        "brate"
      ],
      [
        "f",
        "ac"
      ],
      [
        "pillow",
        "y"
      ],
      [
        "g",
        "y"
      ],
      [
        "option",
        "ally"
      ],
      [
        "gy",
        "ro"
      ],
      [
        "sco",
        "op"
      ],
      [
        "F",
        "re"
      ],
      [
        "k",
        "ni"
      ],
      [
        "Fre",
        "nch"
      ],
      [
        "on",
        "d"
      ],
      [
        "utensil",
        "s"
      ],
      [
        "fil",
        "o"
      ],
      [
        "car",
        "amel"
      ],
      [
        "a",
        "y"
      ],
      [
        "rang",
        "es"
      ],
      [
        "vari",
        "able"
      ],
      [
        "f",
        "ond"
      ],
      [
        "fond",
        "ant"
      ],
      [
        "cr",
        "es"
      ],
      [
        "app",
        "les"
      ],
      [
        "flavor",
        "ed"
      ],
      [
        "cres",
        "cent"
      ],
      [
        "salad",
        "plate"
      ],
      [
        "ll",
        "er"
      ],
      [
        "cru",
        "ller"
      ],
      [
        "g",
        "im"
      ],
      [
        "ro",
        "ast"
      ],
      [
        "bak",
        "ing"
      ],
      [
        "surround",
        "ed"
      ],
      [
        "roast",
        "ed"
      ],
      [
        "t",
        "able"
      ],
      [
        "round",
        "ed"
      ],
      [
        "cor",
        "n"
      ],
      [
        "m",
        "ed"
      ],
      [
        "t",
        "ice"
      ],
      [
        "lat",
        "tice"
      ],
      [
        "B",
        "B"
      ],
      [
        "BB",
        "Q"
      ],
      [
        "crescent",
        "roll"
      ],
      [
        "ta",
        "ur"
      ],
      [
        "res",
        "taur"
      ],
      [
        "e",
        "l"
      ],
      [
        "fo",
        "ot"
      ],
      [
        "fl",
        "ow"
      ],
      [
        "restaur",
        "ant"
      ],
      [
        "crab",
        "meat"
      ],
      [
        "om",
        "me"
      ],
      [
        "cons",
        "omme"
      ],
      [
        "char",
        "red"
      ],
      [
        "contain",
        "er"
      ],
      [
        "i",
        "ts"
      ],
      [
        "li",
        "qu"
      ],
      [
        "liqu",
        "id"
      ],
      [
        "flow",
        "ers"
      ],
      [
        "cas",
        "ual"
      ],
      [
        "at",
        "ess"
      ],
      [
        "de",
        "lic"
      ],
      [
        "ut",
        "ed"
      ],
      [
        "sour",
        "cream"
      ],
      [
        "fl",
        "uted"
      ],
      [
        "atess",
        "en"
      ],
      [
        "delic",
        "atessen"
      ],
      [
        "do",
        "or"
      ],
      [
        "ct",
        "ions"
      ],
      [
        "swir",
        "ly"
      ],
      [
        "sh",
        "ar"
      ],
      [
        "se",
        "ctions"
      ],
      [
        "cr",
        "us"
      ],
      [
        "c",
        "and"
      ],
      [
        "u",
        "p"
      ],
      [
        "shar",
        "p"
      ],
      [
        "s",
        "et"
      ],
      [
        "ce",
        "an"
      ],
      [
        "radi",
        "al"
      ],
      [
        "ser",
        "ole"
      ],
      [
        "cas",
        "serole"
      ],
      [
        "out",
        "door"
      ],
      [
        "ta",
        "cean"
      ],
      [
        "cook",
        "ie"
      ],
      [
        "bo",
        "ard"
      ],
      [
        "crus",
        "tacean"
      ],
      [
        "tri",
        "fle"
      ],
      [
        "wat",
        "er"
      ],
      [
        "ti",
        "e"
      ],
      [
        "fork",
        "s"
      ],
      [
        "kni",
        "ves"
      ],
      [
        "topp",
        "er"
      ],
      [
        "back",
        "ground"
      ],
      [
        "bolo",
        "tie"
      ],
      [
        "stri",
        "pes"
      ],
      [
        "fac",
        "es"
      ],
      [
        "p",
        "ed"
      ],
      [
        "sur",
        "faces"
      ],
      [
        "siz",
        "ed"
      ],
      [
        "he",
        "l"
      ],
      [
        "meat",
        "loaf"
      ],
      [
        "set",
        "ting"
      ],
      [
        "flesh",
        "y"
      ],
      [
        "ro",
        "cks"
      ],
      [
        "anch",
        "or"
      ],
      [
        "hel",
        "ps"
      ],
      [
        "s",
        "o"
      ],
      [
        "re",
        "ci"
      ],
      [
        "brown",
        "ies"
      ],
      [
        "reci",
        "pe"
      ],
      [
        "tur",
        "n"
      ],
      [
        "k",
        "y"
      ],
      [
        "ow",
        "n"
      ],
      [
        "chun",
        "ky"
      ],
      [
        "spoon",
        "ful"
      ],
      [
        "u",
        "gh"
      ],
      [
        "les",
        "s"
      ],
      [
        "meat",
        "ball"
      ],
      [
        "plat",
        "ing"
      ],
      [
        "par",
        "t"
      ],
      [
        "o",
        "b"
      ],
      [
        "ro",
        "ugh"
      ],
      [
        "fo",
        "il"
      ],
      [
        "e",
        "i"
      ],
      [
        "custard",
        "s"
      ],
      [
        "ei",
        "ther"
      ],
      [
        "ste",
        "m"
      ],
      [
        "la",
        "b"
      ],
      [
        "vegetab",
        "le"
      ],
      [
        "part",
        "ic"
      ],
      [
        "th",
        "rough"
      ],
      [
        "spoon",
        "s"
      ],
      [
        "through",
        "out"
      ],
      [
        "partic",
        "les"
      ],
      [
        "p",
        "re"
      ],
      [
        "s",
        "lab"
      ],
      [
        "ma",
        "teri"
      ],
      [
        "materi",
        "al"
      ],
      [
        "fa",
        "it"
      ],
      [
        "par",
        "fait"
      ],
      [
        "d",
        "isp"
      ],
      [
        "n",
        "ap"
      ],
      [
        "go",
        "od"
      ],
      [
        "qu",
        "i"
      ],
      [
        "rim",
        "med"
      ],
      [
        "i",
        "a"
      ],
      [
        "disp",
        "lay"
      ],
      [
        "rim",
        "less"
      ],
      [
        "corn",
        "bread"
      ],
      [
        "p",
        "la"
      ],
      [
        "ro",
        "lled"
      ],
      [
        "whipped",
        "cream"
      ],
      [
        "d",
        "ge"
      ],
      [
        "je",
        "ct"
      ],
      [
        "ob",
        "ject"
      ],
      [
        "am",
        "oun"
      ],
      [
        "amoun",
        "t"
      ],
      [
        "pla",
        "ce"
      ],
      [
        "d",
        "own"
      ],
      [
        "is",
        "t"
      ],
      [
        "rais",
        "ed"
      ],
      [
        "turn",
        "over"
      ],
      [
        "t",
        "ang"
      ],
      [
        "er",
        "ia"
      ],
      [
        "ca",
        "fet"
      ],
      [
        "bi",
        "r"
      ],
      [
        "tang",
        "y"
      ],
      [
        "cafet",
        "eria"
      ],
      [
        "lin",
        "er"
      ],
      [
        "s",
        "ion"
      ],
      [
        "sh",
        "el"
      ],
      [
        "shel",
        "ves"
      ],
      [
        "b",
        "a"
      ],
      [
        "d",
        "an"
      ],
      [
        "j",
        "i"
      ],
      [
        "m",
        "en"
      ],
      [
        "s",
        "me"
      ],
      [
        "mu",
        "ji"
      ],
      [
        "dan",
        "muji"
      ],
      [
        "sme",
        "ll"
      ],
      [
        "crack",
        "er"
      ],
      [
        "la",
        "ir"
      ],
      [
        "butter",
        "cream"
      ],
      [
        "ec",
        "lair"
      ],
      [
        "pres",
        "er"
      ],
      [
        "ma",
        "t"
      ],
      [
        "special",
        "ty"
      ],
      [
        "preser",
        "ves"
      ],
      [
        "t",
        "ru"
      ],
      [
        "ac",
        "ros"
      ],
      [
        "mo",
        "ist"
      ],
      [
        "acros",
        "s"
      ],
      [
        "d",
        "ay"
      ],
      [
        "la",
        "be"
      ],
      [
        "bread",
        "ed"
      ],
      [
        "lu",
        "mp"
      ],
      [
        "k",
        "ins"
      ],
      [
        "nap",
        "kins"
      ],
      [
        "gri",
        "ll"
      ],
      [
        "confection",
        "er"
      ],
      [
        "place",
        "mat"
      ],
      [
        "ff",
        "le"
      ],
      [
        "tru",
        "ffle"
      ],
      [
        "sh",
        "op"
      ],
      [
        "cur",
        "d"
      ],
      [
        "bean",
        "curd"
      ],
      [
        "M",
        "ay"
      ],
      [
        "e",
        "ar"
      ],
      [
        "t",
        "ab"
      ],
      [
        "al",
        "mon"
      ],
      [
        "qui",
        "che"
      ],
      [
        "gu",
        "et"
      ],
[...]
